[PAD]
[UNK]
[CLS]
[SEP]
[MASK]
<s>
</s>
[unused2]
[unused3]
[unused4]
[unused5]
[unused6]
[unused7]
[unused8]
[unused9]
[unused10]
[unused11]
[unused12]
[unused13]
[unused14]
[unused15]
[unused16]
[unused17]
[unused18]
[unused19]
[unused20]
[unused21]
[unused22]
[unused23]
[unused24]
[unused25]
[unused26]
[unused27]
[unused28]
[unused29]
[unused30]
[unused31]
[unused32]
[unused33]
[unused34]
[unused35]
[unused36]
[unused37]
[unused38]
[unused39]
[unused40]
[unused41]
[unused42]
[unused43]
[unused44]
[unused45]
[unused46]
[unused47]
[unused48]
[unused49]
[unused50]
[unused51]
[unused52]
[unused53]
[unused54]
[unused55]
[unused56]
[unused57]
[unused58]
[unused59]
[unused60]
[unused61]
[unused62]
[unused63]
[unused64]
[unused65]
[unused66]
[unused67]
[unused68]
[unused69]
[unused70]
[unused71]
[unused72]
[unused73]
[unused74]
[unused75]
[unused76]
[unused77]
[unused78]
[unused79]
[unused80]
[unused81]
[unused82]
[unused83]
[unused84]
[unused85]
[unused86]
[unused87]
[unused88]
[unused89]
[unused90]
[unused91]
[unused92]
[unused93]
[unused94]
[unused95]
[unused96]
[unused97]
[unused98]
[unused99]
[unused100]
[unused101]
[unused102]
[unused103]
[unused104]
[unused105]
[unused106]
[unused107]
[unused108]
[unused109]
[unused110]
[unused111]
[unused112]
[unused113]
[unused114]
[unused115]
[unused116]
[unused117]
[unused118]
[unused119]
[unused120]
[unused121]
[unused122]
[unused123]
[unused124]
[unused125]
[unused126]
[unused127]
[unused128]
[unused129]
[unused130]
[unused131]
[unused132]
[unused133]
[unused134]
[unused135]
[unused136]
[unused137]
[unused138]
[unused139]
[unused140]
[unused141]
[unused142]
[unused143]
[unused144]
[unused145]
[unused146]
[unused147]
[unused148]
[unused149]
[unused150]
[unused151]
[unused152]
[unused153]
[unused154]
[unused155]
[unused156]
[unused157]
[unused158]
[unused159]
[unused160]
[unused161]
[unused162]
[unused163]
[unused164]
[unused165]
[unused166]
[unused167]
[unused168]
[unused169]
[unused170]
[unused171]
[unused172]
[unused173]
[unused174]
[unused175]
[unused176]
[unused177]
[unused178]
[unused179]
[unused180]
[unused181]
[unused182]
[unused183]
[unused184]
[unused185]
[unused186]
[unused187]
[unused188]
[unused189]
[unused190]
[unused191]
[unused192]
[unused193]
[unused194]
[unused195]
[unused196]
[unused197]
[unused198]
[unused199]
[unused200]
[unused201]
[unused202]
[unused203]
[unused204]
[unused205]
[unused206]
[unused207]
[unused208]
[unused209]
[unused210]
[unused211]
[unused212]
[unused213]
[unused214]
[unused215]
[unused216]
[unused217]
[unused218]
[unused219]
[unused220]
[unused221]
[unused222]
[unused223]
[unused224]
[unused225]
[unused226]
[unused227]
[unused228]
[unused229]
[unused230]
[unused231]
[unused232]
[unused233]
[unused234]
[unused235]
[unused236]
[unused237]
[unused238]
[unused239]
[unused240]
[unused241]
[unused242]
[unused243]
[unused244]
[unused245]
[unused246]
[unused247]
[unused248]
[unused249]
[unused250]
[unused251]
[unused252]
[unused253]
[unused254]
[unused255]
[unused256]
[unused257]
[unused258]
[unused259]
[unused260]
[unused261]
[unused262]
[unused263]
[unused264]
[unused265]
[unused266]
[unused267]
[unused268]
[unused269]
[unused270]
[unused271]
[unused272]
[unused273]
[unused274]
[unused275]
[unused276]
[unused277]
[unused278]
[unused279]
[unused280]
[unused281]
[unused282]
[unused283]
[unused284]
[unused285]
[unused286]
[unused287]
[unused288]
[unused289]
[unused290]
[unused291]
[unused292]
[unused293]
[unused294]
[unused295]
[unused296]
[unused297]
[unused298]
[unused299]
[unused300]
[unused301]
[unused302]
[unused303]
[unused304]
[unused305]
[unused306]
[unused307]
[unused308]
[unused309]
[unused310]
[unused311]
[unused312]
[unused313]
[unused314]
[unused315]
[unused316]
[unused317]
[unused318]
[unused319]
[unused320]
[unused321]
[unused322]
[unused323]
[unused324]
[unused325]
[unused326]
[unused327]
[unused328]
[unused329]
[unused330]
[unused331]
[unused332]
[unused333]
[unused334]
[unused335]
[unused336]
[unused337]
[unused338]
[unused339]
[unused340]
[unused341]
[unused342]
[unused343]
[unused344]
[unused345]
[unused346]
[unused347]
[unused348]
[unused349]
[unused350]
[unused351]
[unused352]
[unused353]
[unused354]
[unused355]
[unused356]
[unused357]
[unused358]
[unused359]
[unused360]
[unused361]
[unused362]
[unused363]
[unused364]
[unused365]
[unused366]
[unused367]
[unused368]
[unused369]
[unused370]
[unused371]
[unused372]
[unused373]
[unused374]
[unused375]
[unused376]
[unused377]
[unused378]
[unused379]
[unused380]
[unused381]
[unused382]
[unused383]
[unused384]
[unused385]
[unused386]
[unused387]
[unused388]
[unused389]
[unused390]
[unused391]
[unused392]
[unused393]
[unused394]
[unused395]
[unused396]
[unused397]
[unused398]
[unused399]
[unused400]
[unused401]
[unused402]
[unused403]
[unused404]
[unused405]
[unused406]
[unused407]
[unused408]
[unused409]
[unused410]
[unused411]
[unused412]
[unused413]
[unused414]
[unused415]
[unused416]
[unused417]
[unused418]
[unused419]
[unused420]
[unused421]
[unused422]
[unused423]
[unused424]
[unused425]
[unused426]
[unused427]
[unused428]
[unused429]
[unused430]
[unused431]
[unused432]
[unused433]
[unused434]
[unused435]
[unused436]
[unused437]
[unused438]
[unused439]
[unused440]
[unused441]
[unused442]
[unused443]
[unused444]
[unused445]
[unused446]
[unused447]
[unused448]
[unused449]
[unused450]
[unused451]
[unused452]
[unused453]
[unused454]
[unused455]
[unused456]
[unused457]
[unused458]
[unused459]
[unused460]
[unused461]
[unused462]
[unused463]
[unused464]
[unused465]
[unused466]
[unused467]
[unused468]
[unused469]
[unused470]
[unused471]
[unused472]
[unused473]
[unused474]
[unused475]
[unused476]
[unused477]
[unused478]
[unused479]
[unused480]
[unused481]
[unused482]
[unused483]
[unused484]
[unused485]
[unused486]
[unused487]
[unused488]
[unused489]
[unused490]
[unused491]
[unused492]
[unused493]
[unused494]
[unused495]
[unused496]
[unused497]
[unused498]
[unused499]
!
"
#
$
%
&
'
(
)
*
+
,
-
.
/
0
1
2
3
4
5
6
7
8
9
:
;
<
=
>
?
@
A
B
C
D
E
F
G
H
I
J
K
L
M
N
O
P
Q
R
S
T
U
V
W
X
Y
Z
[
\
]
^
_
`
a
b
c
d
e
f
g
h
i
j
k
l
m
n
o
p
q
r
s
t
u
v
w
x
y
z
{
|
}
~
§
«
°
±
²
³
´
·
¹
»
½
É
×
à
á
â
ä
ç
è
é
í
ó
ö
÷
ü
ā
ī
ː
˘
˚
˝
́
̈
̣
̥
Δ
α
β
γ
δ
ε
η
θ
ι
κ
λ
μ
ν
ο
π
ρ
ς
σ
τ
ω
А
В
К
М
П
Р
С
а
б
в
г
д
е
ж
з
и
й
к
л
м
н
о
п
р
с
т
у
х
ц
ч
ш
ы
ь
я
ا
ل
و
ෆ
๑
ღ
ᄒ
ᆞ
ᆡ
–
—
―
‘
’
“
”
•
․
‥
…
‧
′
※
‼
₁
₂
₩
€
℃
ℓ
™
⅓
Ⅰ
Ⅱ
Ⅲ
Ⅳ
Ⅴ
Ⅵ
←
↑
→
↓
↔
⇒
−
∙
∼
≪
≫
⊙
⋅
①
②
③
④
⑤
⑥
⑦
⑧
⑨
⑩
⑪
⑫
⑴
⑵
⑶
⑷
ⓐ
ⓑ
ⓒ
─
━
│
┃
┌
└
├
┬
■
□
▣
▨
▪
▫
▲
△
▶
▷
▼
▽
◀
◆
◇
◈
○
◎
●
◡
★
☆
☎
☏
☕
☞
☺
♀
♂
♡
♣
♤
♥
♩
♪
♬
✅
✌
✔
✨
❗
❣
❤
➡
⠀
⭐
、
。
〃
〈
〉
《
》
「
」
『
』
【
】
〓
〔
〕
〜
〰
あ
い
う
え
お
か
が
き
く
け
こ
さ
し
す
た
だ
ち
っ
つ
て
で
と
な
に
ぬ
の
は
ま
み
も
や
よ
ら
り
る
れ
わ
を
ん
ア
ィ
イ
カ
キ
ク
グ
コ
シ
ジ
ス
タ
チ
ッ
テ
ト
ド
ニ
ノ
フ
ブ
ポ
マ
ム
メ
ラ
リ
ル
レ
ロ
ン
・
ー
ㄱ
ㄲ
ㄴ
ㄷ
ㄹ
ㅁ
ㅂ
ㅃ
ㅅ
ㅆ
ㅇ
ㅈ
ㅉ
ㅊ
ㅋ
ㅌ
ㅍ
ㅎ
ㅏ
ㅐ
ㅑ
ㅓ
ㅔ
ㅕ
ㅗ
ㅛ
ㅜ
ㅠ
ㅡ
ㅣ
ㅤ
ㆍ
㈎
㈏
㈐
㈑
㈔
㈜
㉠
㉡
㉢
㉣
㉮
㉯
㉰
㎉
㎍
㎎
㎏
㎒
㎓
㎖
㎛
㎜
㎝
㎞
㎡
㎢
㎥
㎾
㎿
㏄
㏈
㏊
一
丁
七
丈
三
上
下
不
丑
且
世
丘
丙
丞
中
丸
丹
主
乃
久
之
乎
乘
乙
九
也
乳
乾
亂
了
事
二
于
云
互
五
井
亞
亡
交
亥
亦
亨
享
京
亭
亮
人
仁
今
介
仕
他
付
仙
代
令
以
仰
仲
件
任
企
伊
伏
伐
休
会
伯
似
伽
但
位
低
住
佐
何
余
佛
作
佳
使
來
例
侍
供
依
侯
侵
便
係
俊
俗
保
信
修
俱
倂
倉
個
倍
倒
候
借
値
倫
倭
假
偉
偏
停
健
傅
備
傳
債
傷
僉
像
僕
僞
僧
價
儀
儒
償
優
允
元
兄
充
兆
先
光
克
免
兒
入
內
全
兩
兪
八
公
六
共
兵
其
具
典
兼
内
冊
再
冠
冬
凉
凡
凶
出
刀
分
切
刊
刑
列
初
判
別
利
到
制
券
刺
刻
則
前
剛
副
割
創
劃
劇
劉
劍
力
功
加
助
勇
勒
動
務
勝
勞
勢
勤
勳
勸
勿
包
化
北
匠
匡
區
十
千
升
午
半
卑
卒
卓
協
南
博
卜
卞
占
卦
卯
印
危
却
卷
卽
卿
厚
原
去
參
又
及
友
反
叔
取
受
叢
口
古
句
只
召
可
台
史
右
司
各
合
吉
同
名
后
吏
向
君
否
含
吳
吾
呂
告
周
味
呼
命
和
咸
哀
品
哉
員
哲
唐
唯
唱
商
問
啓
善
喜
喪
單
嘉
嘗
器
嚴
四
回
因
固
国
圈
國
圍
園
圓
圖
團
土
在
圭
地
址
坂
均
坊
坐
坡
坤
坪
型
城
域
執
基
堂
堅
堯
報
場
塔
塚
塵
境
墓
增
墨
墳
壁
壇
壓
壤
士
壬
壯
壽
夏
夕
外
多
夜
夢
大
天
太
夫
央
失
夷
奇
奈
奉
奎
奏
契
女
奴
好
如
妃
妄
妓
妙
妻
始
姓
委
姜
姬
威
婚
婢
婦
子
孔
字
存
孝
孟
季
孤
学
孫
學
宅
宇
守
安
宋
完
宗
官
宙
定
宜
客
宣
室
宮
宰
害
宴
家
容
宿
寂
寄
寅
密
富
寒
察
寡
實
寧
審
寫
寬
寶
寺
封
射
將
專
尉
尊
尋
對
導
小
少
尙
就
尹
尺
尼
尾
局
居
屈
屋
展
層
履
屬
山
岐
岡
岩
岳
岸
峯
峰
峴
島
崇
崎
崔
嶺
巖
川
州
巡
工
左
巨
巫
差
己
已
巳
巴
市
布
希
帖
帝
帥
師
席
帶
常
幕
干
平
年
幸
幹
幻
幼
幽
幾
床
序
底
店
庚
府
度
座
庫
庭
庵
庶
康
庸
廉
廟
廢
廣
廳
延
廷
建
式
弓
弔
引
弗
弘
弟
弱
張
强
弼
彈
彌
形
彦
彩
彭
影
役
彼
往
征
待
律
後
徐
徒
得
從
御
復
微
徵
德
徽
心
必
忌
忍
志
忘
忠
念
忽
怒
思
急
性
怨
怪
恐
恒
恨
恩
恭
息
悅
悟
患
悲
情
惑
惟
惠
惡
惱
想
意
愚
愛
感
愼
慈
態
慕
慧
慮
慶
慾
憂
憲
應
懷
懿
戊
戌
成
我
戒
或
戦
戰
戱
戴
戶
房
所
手
才
打
扶
批
承
技
投
抗
折
招
拜
持
指
振
授
掌
排
探
接
推
提
揚
換
援
損
摠
摩
撫
播
撰
擇
擊
操
擔
據
擧
擬
攝
支
收
改
攻
放
政
故
效
敍
敎
敏
救
敗
敢
散
敦
敬
整
敵
數
文
斗
料
斥
斯
新
斷
方
於
施
旅
旌
族
旗
旣
日
旨
早
昇
昌
明
易
星
映
春
昭
是
時
晉
晋
晩
普
景
智
暗
暴
曆
曉
曰
曲
更
書
曹
曺
曾
最
會
月
有
朋
服
朔
望
朝
期
木
未
末
本
朱
朴
李
材
村
杖
杜
束
東
松
板
林
果
枝
某
染
柔
柱
柳
査
校
株
核
根
格
桂
桃
案
桑
桓
梁
梅
條
梵
棄
森
植
楊
楚
業
極
榮
構
槪
樂
樓
標
樞
模
樣
樹
橋
機
橫
檀
檢
權
次
欲
欽
款
歌
歐
止
正
此
步
武
歲
歷
歸
死
殊
殘
段
殷
殺
殿
毅
母
每
毒
比
毛
氏
民
氣
水
氷
永
求
汗
汝
江
池
決
沈
沒
沙
河
油
治
況
泉
法
波
注
泰
泳
洋
洗
洙
洛
洞
津
洪
洲
活
派
流
浙
浦
浩
浪
浮
海
消
涉
淑
淡
淨
淫
淮
深
淳
淵
混
淸
清
減
渡
測
港
湖
湯
源
準
溪
溫
滅
滿
漁
漏
演
漢
漸
潛
潤
潭
潮
澤
濟
濤
灣
火
災
炎
炳
烈
烏
焉
無
然
煙
煥
照
煩
熊
熙
熟
熱
燈
燕
營
燮
爭
爲
爵
父
爾
片
版
牙
牛
牧
物
特
犬
犯
狀
狂
狗
猶
獄
獨
獸
獻
玄
率
玉
王
珍
珠
班
現
球
理
琴
瑞
環
甘
甚
生
産
用
甫
田
由
甲
申
男
町
界
留
略
番
異
畵
當
畿
疏
疑
疾
病
症
痛
癸
登
發
白
百
的
皆
皇
皮
益
盛
盜
盟
盡
監
盤
盧
目
直
相
省
看
眞
眠
眼
着
督
矣
知
短
石
砂
砲
破
硏
碑
碧
碩
確
磁
磨
示
社
祀
祐
祖
祝
神
祠
祥
票
祭
祿
禁
禍
福
禪
禮
禹
秀
私
秉
秋
科
秘
租
秦
秩
移
稅
程
種
稱
稷
稿
穀
穆
積
穴
究
空
突
窓
窮
立
章
童
端
競
竹
笑
符
第
筆
等
答
策
箕
算
管
節
範
篇
築
簡
簿
籍
米
精
系
紀
約
紅
紋
納
純
紙
級
素
紫
細
紹
終
組
結
給
統
絲
絶
經
綠
維
綱
網
線
緣
編
縣
總
織
繼
續
罪
置
罰
署
羅
羊
美
群
義
羽
翁
翊
習
翰
翼
老
考
者
而
耕
耳
耶
聖
聞
聯
聲
職
聽
肅
肉
育
背
胎
胡
能
脈
脫
腦
腸
腹
臣
臨
自
至
致
臺
與
興
舊
舌
舍
舜
舞
舟
航
般
船
良
色
芝
花
芳
苑
若
苦
英
茂
范
茶
草
荒
荷
莊
莫
菊
菜
菩
華
菴
萬
落
葉
著
葛
董
葬
蒙
蒼
蓋
蓮
蔡
蕭
薄
薛
薩
藏
藝
藤
藥
藩
蘇
蘭
虎
處
虛
虞
號
蛇
蜀
融
血
衆
行
衍
術
街
衛
衡
衣
表
衰
袁
被
裁
裕
補
裝
裵
製
複
襄
西
要
覆
覇
見
規
視
親
覺
覽
觀
角
解
觸
言
計
討
訓
託
記
訟
訥
訪
設
許
訴
註
評
詞
試
詩
話
誌
認
語
誠
誤
說
課
調
談
請
論
諦
諫
諸
謀
謂
謙
講
謝
證
識
譜
警
譯
議
護
讀
變
讓
谷
豆
豈
豊
象
豪
豫
貞
負
財
貢
貧
貨
貪
貫
責
貴
買
貸
費
貿
賀
賃
資
賈
賊
賓
賜
賞
賠
賢
賣
賤
賦
質
贈
贊
赤
走
起
超
越
趙
足
路
蹟
身
車
軌
軍
軒
載
輔
輕
輝
輪
輯
輸
輿
轉
辛
辨
辭
辯
辰
農
迎
近
述
迷
追
退
送
逆
通
速
造
連
進
逸
遂
遇
遊
運
過
道
達
違
遠
適
遷
選
遺
遼
避
還
邊
邑
那
邦
邪
邱
郎
郞
郡
部
郭
都
鄕
鄧
鄭
酉
配
酒
酸
醫
釋
里
重
野
量
金
釜
針
鉉
銀
銅
銘
錄
錢
錦
錫
錯
鍾
鎬
鎭
鏡
鐘
鐵
鑑
長
門
開
閑
間
閔
閣
關
阪
防
阿
陀
附
降
限
院
陣
除
陰
陳
陵
陶
陸
陽
隆
隊
隋
階
際
障
隨
險
隱
雄
雅
集
雖
雙
雜
離
難
雨
雪
雲
電
需
震
露
靈
靑
靖
靜
非
面
革
韓
音
韻
頂
項
順
須
頌
領
頭
題
額
顔
願
類
顧
顯
風
飛
食
飮
飯
養
餘
館
首
香
馬
駐
騎
驗
驛
骨
體
高
髮
鬪
鬼
魂
魏
魔
魚
魯
鮮
鳥
鳳
鳴
鴻
鶴
鷄
鹽
鹿
麗
麟
麻
黃
黑
默
點
黨
鼎
鼓
齊
齋
齒
齡
龍
龜
가
각
간
갇
갈
갉
감
갑
값
갓
갔
강
갖
갗
같
갚
갛
개
객
갠
갤
갬
갭
갯
갰
갱
갸
걀
걍
걔
거
걱
건
걷
걸
검
겁
것
겄
겅
겉
겊
겋
게
겐
겔
겜
겟
겠
겡
겨
격
겪
견
결
겸
겹
겻
겼
경
곁
계
곗
고
곡
곤
곧
골
곪
곯
곰
곱
곳
공
곶
곸
과
곽
관
괄
괌
광
괘
괜
괭
괴
굉
교
굣
구
국
군
굳
굴
굵
굶
굼
굽
굿
궁
궂
궈
권
궐
궜
궤
귀
귄
귈
귐
귓
규
균
귤
그
극
근
글
긁
금
급
긋
긍
긔
기
긱
긴
길
긿
김
깁
깃
깄
깅
깊
까
깍
깎
깐
깔
깜
깝
깟
깡
깥
깨
깬
깰
깻
깼
깽
꺄
꺅
꺼
꺽
꺾
껀
껄
껌
껍
껏
껐
껑
께
껴
꼈
꼬
꼭
꼰
꼴
꼼
꼽
꼿
꽁
꽂
꽃
꽈
꽉
꽝
꽤
꽥
꽹
꾀
꾸
꾹
꾼
꿀
꿇
꿈
꿉
꿋
꿍
꿎
꿔
꿨
꿩
꿰
뀌
뀐
뀔
뀜
뀨
끄
끈
끊
끌
끓
끔
끗
끙
끝
끼
끽
낀
낄
낌
낍
낑
나
낙
낚
난
낟
날
낡
남
납
낫
났
낭
낮
낯
낱
낳
내
낵
낸
낼
냄
냅
냇
냈
냉
냐
냑
냔
냘
냠
냥
너
넉
넋
넌
널
넓
넘
넙
넛
넜
넝
넣
네
넥
넨
넬
넴
넵
넷
넸
넹
넼
녀
녁
년
념
녔
녕
녘
녜
노
녹
논
놀
놈
놉
놋
농
높
놓
놔
놨
뇌
뇨
뇰
뇸
뇽
누
눅
눈
눌
눔
눕
눗
눙
눠
눴
뉘
뉜
뉠
뉴
늄
늉
느
늑
는
늘
늙
늠
능
늦
늪
늬
니
닉
닌
닐
님
닙
닛
닝
닢
다
닥
닦
단
닫
달
닭
닮
닳
담
답
닷
당
닻
닼
닿
대
댁
댄
댈
댐
댑
댓
댔
댕
댜
더
덕
던
덜
덟
덤
덥
덧
덩
덫
덮
데
덱
덴
델
뎀
뎁
뎃
뎅
뎈
뎌
뎐
뎠
도
독
돈
돋
돌
돔
돕
돗
동
돛
돼
됏
됐
되
된
될
됨
됩
됬
됴
두
둑
둔
둘
둠
둡
둣
둥
둬
뒀
뒈
뒤
뒷
뒹
듀
듈
듐
드
득
든
듣
들
듦
듬
듭
듯
등
디
딕
딘
딛
딜
딤
딥
딧
딨
딩
딪
따
딱
딴
딸
땀
땃
땄
땅
땋
때
땐
땔
땜
땠
땡
떄
떠
떡
떤
떨
떫
떳
떴
떵
떻
떼
뗀
뗄
뗏
뗐
또
똑
똘
똥
똬
뙇
뙤
뚜
뚝
뚠
뚤
뚫
뚱
뛰
뛴
뛸
뜀
뜨
뜩
뜬
뜯
뜰
뜸
뜻
띄
띈
띌
띔
띠
띤
띨
띵
라
락
란
랄
람
랍
랏
랐
랑
랖
랗
래
랙
랜
랠
램
랩
랫
랬
랭
랴
략
량
러
럭
런
럴
럼
럽
럿
렀
렁
렇
레
렉
렌
렐
렘
렙
렛
렝
려
력
련
렬
렴
렵
렷
렸
령
례
롄
로
록
론
롤
롬
롭
롯
롱
뢰
뢴
룀
료
룡
루
룩
룬
룰
룸
룹
룻
룽
뤄
뤘
뤼
뤽
류
륙
륜
률
륨
륭
르
륵
른
를
름
릅
릇
릉
릎
릏
리
릭
린
릴
림
립
릿
링
마
막
만
많
맏
말
맑
맘
맙
맛
망
맞
맡
맣
매
맥
맨
맬
맴
맵
맷
맸
맹
맺
먀
먐
머
먹
먼
멀
멈
멋
멍
멎
멓
메
멕
멘
멜
멤
멧
멩
며
멱
면
멸
몄
명
몇
모
목
몫
몬
몰
몸
몹
못
몽
뫼
묘
무
묵
묶
문
묻
물
묽
뭄
뭇
뭉
뭍
뭐
뭔
뭘
뭡
뭣
뮈
뮌
뮐
뮤
뮨
뮬
뮴
므
믄
믈
믐
미
믹
민
믿
밀
밈
밉
밋
밌
밍
및
밑
바
박
밖
반
받
발
밝
밟
밤
밥
밧
방
밭
배
백
밴
밸
뱀
뱃
뱅
뱉
뱌
버
벅
번
벌
범
법
벗
벙
벚
베
벡
벤
벧
벨
벳
벵
벼
벽
변
별
볍
볏
볐
병
볕
볜
보
복
볶
본
볼
봄
봅
봇
봉
봐
봣
봤
봬
뵈
뵌
뵐
뵙
뵤
부
북
분
불
붉
붐
붓
붕
붙
뷔
뷰
뷴
뷸
브
븐
블
비
빅
빈
빌
빔
빕
빗
빙
빚
빛
빠
빡
빤
빨
빰
빳
빴
빵
빻
빼
빽
뺀
뺄
뺌
뺏
뺐
뺑
뺨
뻐
뻑
뻔
뻗
뻘
뻣
뻤
뻥
뻬
뼈
뼉
뼘
뼛
뽀
뽁
뽈
뽐
뽑
뽕
뾰
뿅
뿌
뿍
뿐
뿔
뿜
뿡
쁘
쁜
쁠
쁨
쁩
삐
삑
삘
삥
사
삭
삯
산
살
삶
삼
삽
삿
샀
상
샅
새
색
샌
샐
샘
샛
샜
생
샤
샥
샨
샬
샴
샵
샷
샹
섀
서
석
섞
선
섣
설
섬
섭
섯
섰
성
섶
세
섹
센
셀
셈
셉
셋
셌
셍
셔
션
셜
셤
셧
셨
셩
셰
셴
셸
소
속
솎
손
솔
솜
솝
솟
송
솥
쇄
쇠
쇤
쇳
쇼
숀
숄
숍
숏
숑
수
숙
순
숟
술
숨
숩
숫
숭
숯
숱
숲
숴
쉐
쉑
쉘
쉬
쉰
쉴
쉼
쉽
쉿
슈
슉
슌
슐
슘
슛
슝
스
슥
슨
슬
슭
슴
습
슷
승
시
식
신
싣
실
싫
심
십
싯
싱
싶
싸
싹
싼
쌀
쌈
쌉
쌌
쌍
쌓
쌔
쌕
쌤
쌩
써
썩
썬
썰
썸
썹
썼
썽
쎄
쎈
쏘
쏙
쏜
쏟
쏠
쏭
쏴
쐈
쐐
쐬
쑤
쑥
쑨
쑹
쓰
쓱
쓴
쓸
씀
씁
씌
씨
씩
씬
씰
씸
씹
씻
씽
아
악
안
앉
않
알
앎
앓
암
압
앗
았
앙
앜
앞
애
액
앤
앨
앰
앱
앳
앴
앵
야
약
얀
얄
얇
얌
얍
얏
양
얕
얗
얘
어
억
언
얹
얻
얼
얽
엄
업
없
엇
었
엉
엊
엌
엎
에
엑
엔
엘
엠
엡
엣
엥
여
역
엮
연
열
엷
염
엽
엾
엿
였
영
옅
옆
옇
예
옌
옐
옙
옛
오
옥
온
올
옭
옮
옳
옴
옵
옷
옹
옻
와
왁
완
왈
왑
왓
왔
왕
왜
왠
왤
외
왼
요
욕
욘
욜
욤
욥
욧
용
욬
우
욱
운
울
움
웁
웃
웅
워
웍
원
월
웜
웟
웠
웡
웨
웩
웬
웰
웸
웹
위
윅
윈
윌
윔
윕
윗
윙
유
육
윤
율
윳
융
윷
으
윽
은
을
읊
음
읍
응
의
이
익
인
일
읽
잃
임
입
잇
있
잉
잊
잌
잎
자
작
잔
잖
잘
잠
잡
잣
잤
장
잦
재
잭
잰
잴
잼
잽
잿
쟁
쟈
쟌
쟝
쟤
저
적
전
절
젊
점
접
젓
정
젖
제
젝
젠
젤
젬
젭
젯
져
젼
졋
졌
졍
졔
조
족
존
졸
좀
좁
좃
종
좆
좇
좋
좌
좔
좡
죄
죗
죠
죤
죵
주
죽
준
줄
줌
줍
줏
중
줘
줫
줬
쥐
쥔
쥘
쥬
쥰
쥴
즁
즈
즉
즌
즐
즘
즙
증
지
직
진
질
짊
짐
집
짓
징
짖
짙
짚
짜
짝
짠
짢
짤
짧
짬
짭
짰
짱
째
짹
쨋
쨌
쨍
쨔
쨩
쩌
쩍
쩐
쩔
쩜
쩝
쩡
쩨
쪄
쪘
쪼
쪽
쫀
쫄
쫌
쫑
쫒
쫓
쫘
쫙
쬐
쭈
쭉
쭐
쭙
쭝
쭤
쮸
쯔
쯤
쯧
찌
찍
찐
찔
찜
찝
찡
찢
찧
차
착
찬
찮
찰
참
찹
찻
찼
창
찾
채
책
챈
챌
챔
챕
챗
챘
챙
챠
챱
처
척
천
철
첨
첩
첫
청
체
첵
첸
첼
쳇
쳉
쳐
쳣
쳤
초
촉
촌
촐
촘
촛
총
촤
촨
촬
촵
최
쵸
추
축
춘
출
춤
춥
춧
충
춰
췄
췌
취
츄
츠
측
츨
츰
층
치
칙
친
칠
칡
침
칩
칫
칭
카
칵
칸
칼
캄
캅
캇
캉
캐
캔
캘
캠
캡
캣
캥
캬
커
컥
컨
컫
컬
컴
컵
컷
컸
컹
케
켄
켈
켐
켓
켜
켠
켤
켰
코
콕
콘
콜
콤
콥
콧
콩
콰
콱
콴
콸
쾅
쾌
쾨
쾰
쿄
쿠
쿡
쿤
쿨
쿰
쿱
쿵
쿼
퀀
퀄
퀘
퀴
퀵
퀸
퀼
큐
큘
크
큭
큰
클
큼
큽
킁
키
킥
킨
킬
킴
킵
킷
킹
타
탁
탄
탈
탉
탐
탑
탓
탔
탕
태
택
탠
탤
탬
탭
탯
탰
탱
터
턱
턴
털
텀
텁
텃
텄
텅
테
텍
텐
텔
템
텝
텟
텡
텨
텼
톈
토
톡
톤
톨
톰
톱
톳
통
퇴
툇
투
툭
툰
툴
툼
퉁
퉈
퉜
퉤
튀
튄
튈
튕
튜
튠
튤
튬
트
특
튼
튿
틀
틈
틋
틔
티
틱
틴
틸
팀
팁
팅
파
팍
팎
판
팔
팜
팝
팟
팠
팡
팥
패
팩
팬
팰
팸
팹
팻
팽
퍼
퍽
펀
펄
펌
펍
펐
펑
페
펙
펜
펠
펨
펩
펫
펭
펴
편
펼
폄
폈
평
폐
포
폭
폰
폴
폼
폿
퐁
푀
표
푯
푸
푹
푼
풀
품
풋
풍
퓌
퓨
퓰
퓸
프
픈
플
픔
픕
피
픽
핀
필
핌
핍
핏
핑
하
학
한
할
핥
함
합
핫
항
핳
해
핵
핸
핼
햄
햅
햇
했
행
햐
향
허
헉
헌
헐
험
헙
헛
헝
헤
헥
헨
헬
헴
헵
헷
헹
헿
혀
혁
현
혈
혐
협
혓
혔
형
혜
호
혹
혼
홀
홈
홉
홋
홍
홑
화
확
환
활
홧
황
홰
홱
횃
회
획
횟
횡
효
후
훅
훈
훌
훑
훔
훗
훙
훠
훤
훨
훼
휀
휑
휘
휙
휜
휠
휩
휴
휼
흄
흉
흐
흑
흔
흘
흙
흠
흡
흥
흩
희
흰
히
힉
힌
힐
힘
힙
힛
힝
金
羅
樂
落
亂
勞
盧
老
魯
論
樂
復
不
沈
兩
梁
良
呂
女
歷
年
聯
連
列
烈
靈
禮
遼
龍
劉
柳
流
留
類
六
陸
律
利
李
理
離
林
臨
立
狀
茶
宅
️
！
＂
＄
％
＆
＇
（
）
＊
＋
，
－
．
／
：
；
＜
＝
＞
？
［
］
＿
ｇ
ｍ
ｔ
｜
～
｢
｣
･
￣
￦
🌟
🌸
🌼
🌿
🍃
🍓
🍞
🍫
🍳
🍴
🎁
🎉
🎶
🏃
🏻
🏼
🐶
🐷
🐽
👀
👈
👉
👊
👋
👌
👍
👏
👧
👩
👶
👻
💃
💓
💕
💖
💗
💙
💚
💛
💜
💦
💪
📌
🔥
🖤
😀
😁
😂
😃
😄
😅
😆
😉
😊
😋
😌
😍
😎
😏
😖
😘
😙
😚
😛
😝
😢
😥
😭
😱
😳
🙂
🙄
🙆
🙇
🙈
🙊
🙋
🙌
🙏
🤔
🤗
🤣
🤤
🤦
🤩
🤭
🥄
🥰
🧡
##n
##u
##k
##o
##I
##N
##a
##l
##p
##h
##y
##i
##s
##사
##퇴
##까
##지
##m
##c
##t
##e
##연
##계
##자
##꾸
##작
##구
##크
##널
##넘
##너
##무
##r
##g
##ㅋ
##대
##북
##특
##단
##이
##리
##8
##0
##4
##1
##9
##v
##양
##산
##업
##썩
##외
##교
##ㆍ
##경
##찰
##의
##문
##룡
##℃
##d
##덴
##평
##시
##O
##K
##A
##j
##팔
##꼭
##z
##ㅜ
##ㅠ
##현
##위
##회
##복
##초
##기
##에
##숙
##희
##😋
##건
##축
##토
##목
##부
##서
##w
##판
##b
##달
##수
##승
##ó
##금
##성
##화
##을
##5
##진
##q
##P
##E
##노
##야
##C
##레
##역
##형
##B
##F
##로
##아
##티
##보
##스
##니
##친
##고
##려
##인
##백
##제
##도
##중
##R
##す
##れ
##な
##い
##말
##돼
##테
##쎄
##여
##열
##탈
##들
##헌
##식
##할
##래
##요
##군
##포
##김
##명
##ä
##f
##Y
##M
##S
##U
##버
##렸
##나
##미
##남
##농
##유
##주
##T
##휴
##원
##해
##창
##언
##어
##론
##과
##7
##x
##ㅈ
##ㄹ
##하
##컬
##러
##져
##면
##감
##읍
##립
##소
##편
##급
##ا
##오
##그
##르
##게
##영
##손
##설
##득
##키
##항
##공
##전
##상
##환
##결
##권
##일
##본
##윤
##정
##마
##G
##학
##D
##거
##싱
##바
##홍
##빈
##실
##용
##о
##л
##ь
##ш
##е
##в
##и
##с
##т
##к
##망
##큐
##렐
##맴
##2
##안
##찾
##는
##다
##동
##라
##카
##램
##민
##디
##황
##글
##잘
##륙
##3
##κ
##운
##와
##짜
##별
##음
##신
##ㅑ
##ㅓ
##ㅕ
##ㅗ
##색
##욕
##レ
##イ
##ー
##물
##가
##데
##세
##개
##혁
##국
##호
##암
##각
##늘
##샛
##간
##얼
##굴
##파
##패
##였
##모
##터
##쇼
##람
##L
##청
##장
##등
##취
##락
##육
##풍
##습
##범
##셉
##통
##령
##선
##약
##력
##체
##적
##료
##재
##님
##두
##함
##쳐
##ㅅ
##타
##극
##우
##당
##행
##관
##W
##る
##よ
##う
##に
##든
##택
##만
##천
##랑
##느
##트
##둥
##내
##한
##분
##은
##조
##댄
##츠
##좌
##쯔
##순
##💓
##ㅏ
##랗
##ㅎ
##덕
##울
##드
##광
##곡
##례
##병
##살
##の
##は
##ト
##チ
##😭
##😢
##출
##날
##밤
##땅
##콩
##같
##털
##벤
##처
##입
##를
##골
##집
##ā
##ī
##봉
##빌
##악
##듬
##폭
##렌
##치
##종
##협
##규
##찍
##준
##박
##접
##효
##린
##석
##옥
##최
##질
##략
##논
##쟁
##H
##왔
##변
##근
##방
##낭
##떠
##д
##н
##а
##я
##녹
##예
##완
##왕
##태
##발
##샨
##배
##독
##も
##é
##강
##직
##응
##옌
##ㅌ
##ㄱ
##ㄷ
##폐
##합
##융
##젖
##반
##혼
##ω
##π
##α
##σ
##ι
##ς
##멀
##막
##피
##벅
##책
##임
##샤
##템
##셰
##프
##겅
##뽑
##럽
##첼
##ㅊ
##Z
##V
##액
##6
##생
##활
##험
##탕
##칼
##쿠
##코
##멤
##롱
##턴
##웅
##네
##란
##텔
##ん
##か
##온
##꿈
##꽃
##リ
##ス
##법
##×
##💚
##💛
##엥
##비
##투
##며
##증
##율
##괴
##철
##몰
##필
##핀
##길
##잔
##표
##페
##🙏
##🏻
##🙇
##술
##귀
##워
##묘
##엽
##송
##향
##푸
##클
##롭
##묵
##팡
##블
##루
##녀
##매
##누
##긴
##윙
##ㅇ
##춰
##ㅔ
##툇
##ж
##넷
##몬
##탑
##추
##찬
##혜
##앙
##름
##때
##탁
##꿉
##난
##흥
##족
##림
##징
##된
##ロ
##얘
##줄
##렴
##슐
##격
##혹
##럼
##볼
##류
##훤
##으
##콤
##룹
##😂
##몇
##벽
##련
##존
##새
##볐
##р
##심
##휘
##었
##헨
##삼
##닥
##릴
##ㅃ
##엠
##욱
##싶
##맨
##즈
##허
##절
##ㅍ
##ᄒ
##á
##ラ
##깔
##충
##ㅂ
##받
##았
##짓
##땡
##뽕
##톱
##팅
##퓨
##압
##움
##좋
##겟
##룬
##읽
##애
##션
##흠
##ч
##ы
##념
##닭
##갈
##밥
##씨
##염
##섭
##춘
##채
##놀
##й
##톤
##점
##틴
##🥄
##💙
##ü
##메
##케
##텁
##п
##Q
##륜
##차
##검
##こ
##🤩
##빠
##꿀
##맛
##엄
##カ
##틀
##랜
##웨
##척
##릉
##커
##찌
##낙
##팀
##엘
##엔
##핑
##ル
##🙆
##칸
##졸
##품
##꾼
##슈
##총
##년
##층
##껄
##싯
##у
##м
##플
##뜻
##딘
##월
##따
##J
##앰
##쓰
##🥰
##🤭
##뢰
##솜
##봄
##담
##랄
##듯
##딩
##붙
##🤣
##😁
##💪
##머
##되
##엇
##숭
##빛
##햇
##견
##춤
##속
##マ
##ン
##ㅡ
##빨
##맞
##テ
##익
##앞
##알
##ㅁ
##è
##런
##넨
##뽀
##펀
##꺄
##록
##꺼
##졌
##멘
##저
##괘
##뜨
##른
##폰
##능
##펨
##ㅐ
##눠
##X
##앗
##확
##😍
##👍
##◀
##し
##섬
##끄
##さ
##た
##잡
##탄
##А
##К
##꿍
##맥
##던
##∼
##뚝
##착
##죄
##컨
##몽
##끔
##늉
##삭
##불
##쪼
##롬
##펜
##ç
##흐
##웃
##촌
##뭄
##Ⅰ
##Ⅱ
##쥐
##혀
##걱
##렬
##ρ
##났
##꼴
##베
##⠀
##큼
##ц
##ニ
##￦
##뫼
##냐
##욥
##죽
##ο
##τ
##ν
##량
##걸
##렉
##갓
##히
##🖤
##あ
##り
##が
##と
##だ
##꾀
##꼬
##😛
##센
##ㄲ
##쥬
##뮤
##브
##겠
##숀
##먼
##윽
##촉
##긿
##맵
##く
##슬
##륨
##😄
##촨
##긔
##흔
##θ
##쌈
##뼈
##뷰
##뱅
##💕
##올
##돈
##춧
##슨
##х
##놈
##흑
##셀
##듈
##듀
##후
##쾌
##쉬
##튼
##답
##팟
##훈
##😖
##겨
##곳
##덤
##럭
##옵
##셔
##줬
##돌
##덧
##솔
##깅
##첨
##틸
##빰
##벌
##짐
##써
##끈
##っ
##랍
##먹
##Ⅴ
##띠
##냄
##랫
##엉
##짤
##컴
##팩
##밀
##번
##엡
##눈
##덜
##냥
##떼
##ㄴ
##침
##쁘
##납
##б
##빗
##뤄
##を
##け
##캐
##낄
##맹
##궁
##튠
##률
##³
##○
##샬
##😘
##🤗
##켜
##🧡
##뇨
##더
##쌀
##쌍
##빡
##듣
##댈
##▪
##②
##③
##궤
##펠
##했
##웠
##😆
##💖
##쟤
##곤
##👊
##칙
##깨
##つ
##렁
##참
##낌
##없
##늑
##랭
##닛
##링
##닙
##랩
##옷
##끝
##또
##졋
##콜
##잉
##넛
##델
##곱
##렛
##줘
##옹
##팽
##칠
##■
##죠
##측
##벙
##돔
##뉴
##킨
##잇
##싼
##💗
##ム
##シ
##짬
##잎
##즙
##냉
##🎉
##🍫
##덥
##힘
##빙
##뚠
##닐
##겐
##칭
##굽
##틱
##タ
##및
##⅓
##뭇
##탔
##늄
##놋
##벼
##헤
##핵
##킴
##캘
##멩
##획
##퀴
##있
##랙
##냈
##캬
##🐶
##え
##똘
##β
##뻘
##き
##ち
##お
##ま
##밖
##👏
##룩
##ら
##キ
##횡
##찮
##혈
##좀
##즘
##캉
##것
##즉
##て
##닝
##윷
##з
##젤
##켓
##콴
##긋
##퍼
##フ
##멜
##갖
##윳
##쩌
##🍞
##メ
##헝
##г
##첩
##떻
##😝
##홈
##핸
##께
##쇠
##겄
##닼
##😚
##😙
##둘
##왈
##낼
##됐
##ぬ
##될
##껴
##ッ
##쪽
##쫌
##뚜
##즐
##🏼
##ö
##で
##넹
##팬
##😅
##🙊
##캠
##뻐
##쩍
##갑
##겁
##늠
##짝
##👌
##억
##λ
##뚱
##닉
##톰
##뇌
##ᆞ
##벨
##객
##딸
##엑
##몸
##균
##뱌
##젠
##뿌
##녜
##휠
##멸
##컵
##ل
##릿
##짚
##ㅣ
##ブ
##ク
##꾹
##못
##룸
##괜
##쉽
##릭
##탱
##흡
##릇
##ε
##홀
##앜
##튜
##í
##🌟
##쿄
##젝
##빅
##퉁
##봐
##ィ
##깐
##눗
##뭉
##깡
##롯
##엌
##탐
##わ
##캔
##η
##ㅛ
##윌
##텍
##🔥
##👈
##켄
##😊
##😱
##γ
##깻
##엣
##닫
##곽
##빼
##늬
##삿
##캇
##땃
##😌
##곰
##겸
##밑
##샘
##눔
##넬
##셸
##콘
##뒷
##훌
##홧
##👉
##톨
##뗄
##칵
##랬
##몫
##앵
##뜩
##쫀
##툭
##셨
##쳣
##쿵
##픽
##겼
##ᆡ
##💃
##맙
##썹
##끌
##잖
##왜
##쟈
##궐
##쇄
##둔
##캄
##😀
##퀸
##👋
##왓
##챠
##힐
##♪
##🙈
##Р
##얄
##욬
##귤
##뭐
##㎡
##셜
##풀
##럴
##쁠
##십
##ド
##헛
##많
##놓
##둠
##쭐
##칩
##댔
##므
##켈
##😃
##켰
##뭔
##や
##グ
##쭝
##섯
##밭
##훼
##쑨
##턱
##푼
##웡
##옴
##톈
##δ
##☆
##뷸
##à
##텅
##둑
##븐
##삽
##롤
##믹
##♩
##♬
##톡
##떨
##밴
##킵
##폼
##앨
##💜
##픈
##み
##뻬
##궈
##뎅
##즁
##😥
##뿐
##짱
##숍
##멈
##곁
##킷
##๑
##🎁
##흘
##잠
##씬
##밍
##▶
##쵸
##â
##갔
##튀
##똥
##찔
##볶
##높
##깽
##🍴
##숩
##뀨
##뉘
##슘
##쓴
##💦
##헿
##띤
##랏
##밸
##뱃
##핳
##갤
##붓
##꿰
##뚫
##퀘
##낑
##텐
##÷
##킬
##뷔
##픔
##샹
##ジ
##릅
##μ
##캅
##됨
##댜
##앱
##빔
##싸
##빵
##첸
##삥
##폴
##딜
##씩
##뇽
##짖
##퀀
##뿔
##コ
##햄
##ㅆ
##믿
##틈
##콧
##멍
##냠
##싹
##킥
##🌿
##띵
##쭈
##굉
##뿅
##뛰
##셋
##⊙
##떳
##윗
##끼
##댓
##㎎
##헐
##삐
##ㅉ
##뒤
##혔
##윈
##킹
##훙
##덩
##떄
##ア
##흉
##솟
##😳
##ｍ
##ｔ
##꽁
##🍃
##츄
##쩔
##힝
##뇸
##닌
##봇
##잣
##푹
##쌤
##럿
##셈
##빤
##└
##탠
##헙
##뻑
##촬
##셩
##걀
##헬
##긁
##떡
##뎌
##싫
##멱
##🌼
##붕
##꺾
##댁
##맘
##볏
##️
##🙄
##챈
##탤
##봣
##찜
##깍
##얀
##쫓
##웍
##좃
##옆
##샵
##젯
##륵
##꿨
##슴
##렷
##믄
##녕
##젊
##픕
##♥
##♡
##옮
##깃
##쏘
##갸
##🍓
##죗
##둬
##뜸
##👻
##웟
##꿔
##귄
##ポ
##훔
##얌
##É
##앤
##째
##값
##펙
##렵
##꼰
##흙
##늦
##땐
##딱
##붐
##┃
##갗
##쳤
##덮
##괄
##춥
##꿇
##겜
##ⓐ
##⑷
##왑
##쮸
##졍
##쩨
##똑
##잼
##숴
##굿
##퐁
##쟝
##벡
##닦
##쑤
##튬
##닷
##●
##⋅
##④
##넣
##췌
##و
##숲
##쁨
##🌸
##펑
##슷
##윅
##쿨
##긍
##뜰
##겋
##넥
##훅
##쥔
##훠
##횟
##뿜
##큰
##넌
##👩
##팝
##뎃
##낸
##댕
##맷
##넼
##맡
##꽂
##죤
##룰
##껏
##밌
##±
##꽈
##쉼
##렇
##ෆ
##쭉
##섹
##튕
##좡
##멋
##찻
##쉰
##홉
##랴
##쉐
##삯
##않
##앉
##밧
##→
##㈏
##㈐
##㈑
##뱀
##눕
##줌
##쫑
##쑹
##뼛
##＋
##꼈
##뮌
##즌
##넙
##펭
##멕
##뒀
##곶
##씀
##잤
##펄
##갱
##췄
##엊
##룽
##웁
##◆
##쪄
##🤤
##눙
##껌
##Ⅳ
##놔
##엿
##갯
##꿩
##슭
##˘
##́
##렀
##⑤
##핏
##솝
##졔
##녔
##렝
##쑥
##엮
##눅
##캡
##뻣
##뽈
##켠
##듭
##걍
##쌌
##👶
##👧
##😉
##촘
##톳
##녁
##릎
##👀
##팥
##탬
##첫
##곗
##둣
##²
##쩜
##딨
##삶
##밋
##깊
##뾰
##썽
##쨔
##굼
##쩐
##끗
##챔
##돗
##끊
##씻
##흰
##쿤
##툰
##꽝
##뀌
##렙
##좆
##녘
##얍
##ノ
##얏
##딤
##뺌
##С
##쏴
##랐
##쯧
##쌓
##믈
##□
##껍
##🙌
##🤦
##샴
##펴
##쩝
##촐
##봅
##젓
##뽁
##껑
##쁜
##밝
##뵈
##혐
##숨
##뤼
##딕
##샷
##뮨
##낀
##섞
##㉣
##넓
##▼
##↓
##←
##😎
##콕
##욘
##숫
##쫄
##왼
##쓸
##헥
##꽹
##꼼
##욤
##넝
##빕
##죵
##욧
##찼
##썰
##렘
##붉
##쩡
##겻
##🐷
##▲
##봤
##슛
##옻
##홰
##벵
##굣
##쓱
##촵
##쫘
##웬
##낯
##앓
##캥
##셍
##━
##헷
##굳
##🙂
##❣
##귈
##°
##펩
##냅
##뻔
##옐
##샌
##힙
##됴
##텨
##겔
##힌
##퓌
##냑
##섣
##´
##씁
##겹
##🍳
##찐
##샐
##챙
##줏
##앳
##슌
##깝
##힉
##🐽
##겉
##쯤
##넉
##썸
##촤
##퍽
##좁
##밈
##깁
##벚
##🎶
##볜
##쿼
##뚤
##짠
##썼
##벗
##걷
##멧
##섰
##놨
##빳
##뎈
##흄
##찹
##🙋
##펌
##쨌
##⑨
##🏃
##듐
##낮
##닮
##뤽
##핌
##팍
##첵
##잌
##팎
##팰
##짭
##뮐
##닿
##팸
##옛
##딥
##칫
##맑
##겪
##똬
##낚
##낱
##륭
##볍
##～
##̈
##낵
##옙
##̥
##꼽
##쐬
##섶
##★
##얹
##밉
##욜
##믐
##츨
##낫
##갛
##갇
##짹
##숏
##쥴
##웹
##핫
##숯
##펐
##텀
##뮬
##П
##돋
##☞
##솎
##켐
##씽
##씌
##웰
##쿡
##눌
##셴
##굵
##뜬
##땀
##🤔
##샥
##쉴
##팹
##В
##쾨
##▽
##왁
##퀼
##＝
##셤
##＜
##젼
##챌
##뀜
##룻
##팜
##ｇ
##풋
##◡
##툼
##잃
##갠
##컷
##넜
##팻
##걔
##딪
##텡
##핍
##핼
##됏
##잭
##캣
##잽
##쐐
##햐
##섀
##뎁
##툴
##뎠
##댐
##땠
##쎈
##덟
##❗
##릏
##뒈
##넵
##뵤
##♤
##쿰
##⑦
##깜
##틋
##△
##⑥
##롄
##낳
##왠
##혓
##펍
##헉
##콥
##볕
##쬐
##잊
##랠
##벳
##＞
##뇰
##냘
##팠
##⑪
##휼
##⑵
##맣
##땋
##휑
##옭
##😏
##₂
##둡
##폿
##곸
##Δ
##꿋
##㉢
##쌔
##쥘
##맏
##찢
##ː
##랖
##퉤
##챗
##퓸
##솥
##콰
##쾅
##М
##뺑
##쨋
##냇
##찡
##씰
##˝
##뭘
##넴
##슥
##뛸
##탯
##훑
##먀
##숄
##빽
##엎
##딴
##Ⅲ
##묽
##≪
##쉘
##⑶
##꺽
##뭡
##컹
##뮴
##숑
##깟
##갚
##훗
##웩
##쨩
##㉯
##궂
##↑
##돕
##윔
##￣
##땔
##펫
##팁
##핥
##샅
##슝
##휀
##홋
##₁
##찧
##탭
##헹
##띔
##짧
##⑧
##씹
##챱
##씸
##찝
##빴
##①
##돛
##칡
##㎝
##뿍
##떤
##쏭
##멓
##괭
##틔
##귓
##㈜
##맬
##딛
##짙
##깬
##쌩
##✨
##늙
##끓
##숟
##삘
##⑩
##텟
##됬
##옅
##텃
##딧
##겊
##¹
##훨
##갉
##뗏
##Ⅵ
##썬
##ⓑ
##ⓒ
##댑
##쳇
##촛
##˚
##뻥
##덱
##◇
##큭
##㉮
##퉈
##∙
##쭙
##퀵
##뽐
##놉
##❤
##깥
##뎐
##꼿
##줫
##켤
##셧
##뺄
##긱
##맺
##젭
##☕
##얕
##｜
##갬
##큘
##힛
##뜯
##챘
##뀐
##깎
##맸
##끙
##텝
##듦
##─
##왤
##꿎
##㉡
##ღ
##젬
##̣
##궜
##냔
##낟
##컥
##뺨
##줍
##뙤
##덫
##쉑
##✔
##쏟
##쏠
##컸
##콸
##튤
##빻
##뜀
##〓
##ㅤ
##◎
##┌
##│
##괌
##밟
##샜
##갰
##폈
##쳉
##땜
##쥰
##뎀
##쿱
##탓
##넋
##묻
##꽥
##킁
##헴
##㎖
##쟌
##쨍
##™
##곧
##잰
##멎
##뛴
##뒹
##뻤
##깰
##츰
##뵐
##뮈
##📌
##€
##얽
##흩
##셌
##얻
##쫙
##뗀
##잦
##✅
##⑫
##룀
##빚
##쌕
##뻗
##귐
##낡
##떫
##헵
##잴
##떵
##깄
##웜
##끽
##늪
##얇
##횃
##얗
##꺅
##몄
##≫
##♣
##쁩
##ℓ
##폄
##⭐
##옇
##쇳
##탰
##뱉
##삑
##먐
##뿡
##휜
##쌉
##뤘
##넸
##㎏
##쪘
##▷
##겡
##텼
##퀄
##➡
##퓰
##쭤
##뺀
##깼
##콱
##꽤
##큽
##탉
##띄
##쉿
##굶
##♀
##샀
##뙇
##㉰
##☺
##홑
##⇒
##홱
##몹
##뀔
##짢
##◈
##㉠
##쏙
##쾰
##앴
##㎿
##✌
##뭣
##뺏
##＄
##떴
##챕
##휩
##숱
##갭
##튿
##닢
##텄
##휙
##묶
##닻
##뵙
##쇤
##옳
##㏊
##앎
##▨
##뷴
##▫
##┬
##뢴
##쫒
##㈔
##푀
##엾
##햅
##꽉
##껀
##컫
##⑴
##좔
##뵌
##½
##뉠
##벧
##땄
##닳
##잿
##쏜
##곯
##눴
##됩
##짊
##봬
##슉
##㎜
##싣
##낍
##푯
##뼉
##뉜
##곪
##㎞
##♂
##−
##좇
##↔
##튄
##₩
##㏄
##띨
##☏
##띈
##펼
##㎍
##├
##㎉
##뼘
##엷
##㎒
##껐
##㈎
##짰
##퉜
##▣
##뺐
##윕
##웸
##㎾
##뭍
##㎥
##뗐
##읊
##☎
으로
에서
한다
##00
##니다
에게
까지
지만
사람
19
면서
라고
20
다는
아니
대한
우리
된다
라는
는데
다고
때문
그러
습니다
지난
위해
부터
생각
한국
보다
10
지역
201
200
그리
문제
자신
경우
그런
이나
사업
통해
대해
시간
사회
따라
다른
기업
해야
함께
아이
시장
미국
하나
그렇
관계
정부
이상
가지
대표
세계
시작
가능
지금
교육
그리고
서울
가장
경기
그러나
사실
처럼
경제
도록
이런
만들
그래
필요
사용
는다
정도
일본
프로
##지만
위원
연구
다시
들어
12
중국
어요
해서
이후
위한
지원
문화
으면
이번
##통령
11
으며
하지만
대통령
모두
다음
관련
대학
이제
정치
어서
상황
밝혔
투자
국가
사이
현재
다가
개발
모든
계획
##니까
의원
어떤
##er
학교
15
기술
이렇
거나
마음
입니다
특히
18
결과
활동
그것
30
많이
후보
영화
국민
ㅋㅋ
##스트
조사
국내
과정
이렇게
이야
진행
중요
지난해
도시
새로
최근
동안
산업
다양
전문
나타
##on
이용
관리
##부터
기록
##주의
대상
민주
는지
또한
이야기
정보
여러
올해
회사
당시
199
이미
처음
선수
나라
학생
##대로
정책
너무
여기
평가
보이
어떻
스타
이유
모습
자기
##000
결정
##시아
##라고
운영
사랑
의미
그래서
바로
자리
이어
내용
생활
설명
인간
금융
여성
운동
돌아
16
다면
없이
시키
아무
##비스
한다는
##in
주장
그녀
제품
새로운
합니다
못하
이러
##어나
방법
##or
역사
13
관계자
참여
방송
국제
##운데
이날
##으며
오늘
##an
환경
같이
어야
최고
감독
업체
지방
사건
14
이름
선거
계속
시대
서비스
현대
예정
17
북한
가운데
규모
기준
라며
추진
기관
중심
발전
삼성
구성
##레이
나오
조선
물론
만큼
경찰
부분
생산
어떻게
여자
시민
따르
직접
교수
발생
상태
가격
경쟁
##랜드
소리
##머니
25
알려
발표
준비
##인다
관심
대회
어느
성장
아닌
상대
제공
포함
##en
회장
##리아
어려
일반
역시
기대
그런데
일부
보여
100
전체
효과
부산
판매
개인
성공
국회
또는
변화
얘기
자유
로서
대구
이라고
분석
작품
무엇
프로그
떨어
요구
확인
노동
위원회
마련
인터
구조
자연
인지
ㅋㅋㅋ
아직
수준
이해
프로그램
존재
행사
##버지
그렇게
가족
영향
##ti
은행
인데
50
더욱
기간
더라
고객
경영
모르
센터
전국
시설
공동
이것
대해서
단체
친구
##ar
자동
얼마
입장
실제
위해서
결국
##al
방식
증가
소비
정말
니까
조직
최대
인가
상품
대부
198
주민
한편
지적
지나
달러
이루
노력
##es
역할
건설
가치
##진다
분야
제도
얼굴
피해
해도
라면
특별
21
남자
활용
강조
확대
나가
세상
대부분
마다
책임
회의
정신
과학
건강
24
인사
대로
##거리
유지
사고
당신
기능
전략
강화
선택
그룹
먼저
공개
어린
자체
현실
만나
한다고
시즌
로부터
중앙
시스
전망
못했
찾아
사진
##이트
##전히
는가
40
배우
조금
표현
의해
행정
22
능력
을까
전쟁
아버지
위치
미래
외국
주택
라도
경험
안전
##다는
서로
인정
병원
해결
음악
하루
기자
인천
밖에
게임
예상
비롯
##소리
기존
여행
보험
공간
목표
공사
관광
23
따라서
드러
정상
시스템
올라
누구
##이스
주요
려고
보인다
해외
개선
직원
마을
계약
머리
나온
어디
기본
오후
지도
못한
고려
자동차
아요
거래
내려
개월
현장
광주
##he
이전
반대
아들
열린
##없이
위기
##너지
방문
실시
해당
아파
아서
적용
수사
마지
##민국
추가
지속
제작
그램
설치
거리
거의
프랑
으로써
대비
발견
기회
위원장
으로서
전화
##으나
예술
유럽
단계
대한민국
아야
마지막
행동
##어난
26
영국
려는
27
아주
도움
적극
##마트
엄마
상승
장관
공격
매우
상당
들어가
업무
치료
예산
28
작업
리그
느냐
언론
통합
판단
공연
대신
동시
차이
바람
##스로
##동안
##나라
행위
집중
감사
이사
비판
##자리
검찰
작가
각각
바라
부담
자료
달리
독일
197
보호
아파트
민주당
수익
우선
##ic
보내
음식
시켜
선정
선생
과거
의사
으나
브랜드
차지
조성
어머니
의견
스스로
처리
사장
세요
문학
확보
만든
협력
조정
내년
주변
이르
무슨
프랑스
##is
결혼
평균
그때
그냥
지구
형태
출신
부족
##디어
단지
비용
그림
사무
##른다
전문가
공급
행복
가까
움직
목적
나왔
안정
관한
보도
인터넷
더라도
주인
기억
##리스
공부
위험
전통
인식
드라
##린다
자금
순간
전자
제대로
목소리
##it
시기
스러
부모
이익
에너지
진짜
29
지지
의식
글로
어렵
누리
수출
근데
분위
제시
언제
최초
보였
말씀
##전자
스럽
통신
##학교
인기
##가지
비교
모델
거든
##at
규정
복지
도입
대책
##el
반면
나이
매출
그대로
분위기
글로벌
디자
아래
##om
분명
환자
주식
앞서
교통
제기
방안
지요
대전
전시
60
노래
신문
오히
세기
TV
등장
차례
오히려
그럼
우려
영업
방향
소비자
이뤄
종합
올림
소설
참가
얼마나
느낌
체험
생명
가구
시행
충분
고자
핵심
비해
의료
LG
공장
인물
개최
따른
롯데
기다
논의
우승
높이
##이어
스마트
196
##레스
예요
가진
제주
지식
일정
소속
시절
유명
소개
장애
현상
인해
수도
가정
연결
인상
##어지
축구
##아들
피부
한테
이동
2000
다르
광고
질문
인구
설립
으로부터
민족
##한다
마치
검사
전혀
올림픽
장기
조건
개혁
사상
중소
인도
##이터
거기
카드
기사
전기
##ol
더니
공식
잖아
##am
가져
신청
31
아름
잘못
정당
참석
네요
건물
대화
2010
##아가
진출
##기업
SK
차량
에선
개념
도로
##tion
##st
기획
##ing
오전
담당
희망
##ul
부문
사례
힘들
##라인
이곳
각종
시험
업계
아침
체계
연기
스포
청소
이게
재정
지난달
성과
부동
바이
대출
내부
유치
주목
그만
정확
합의
출시
공공
러시아
체제
디자인
##이션
아시아
자본
아마
훈련
##BS
재판
펀드
혁신
##인트
소득
나무
나타났
했으며
혐의
##무원
2012
걱정
연합
기반
단순
##ur
다니
사라
독립
원인
시청
세대
의회
교회
수요
논란
수입
형성
##이크
주로
구체
70
비슷
준다
드라마
오래
대형
반응
인제
##이지
승리
버리
##il
대응
협의
교사
##므로
가입
##et
부정
무대
본부
실제로
청와
일단
차원
스포츠
청와대
고민
감소
자원
자산
평화
남편
모양
부동산
요즘
어린이
지정
##어들
경기도
습니까
이끌
주제
전달
선보
느끼
구축
조치
이하
듯이
##스터
출연
가슴
거든요
언어
에요
항공
보고
수행
영어
여름
나와
불과
전환
반영
군사
부르
남성
청년
검토
2011
다만
공원
감정
으니
선물
제외
##어났
자세
경남
월드
어려운
지하
본격
마찬
만드
아내
2014
혹은
성적
인생
2008
기념
마찬가지
등록
##수록
나타나
선발
일상
그동안
초등
하늘
분양
2009
한다면
증권
기초
사망
받아들
##자기
이론
금리
##라이
회복
고용
울산
여전히
떠나
일어나
확실
##nd
##디오
제한
넘어
국정
개정
소재
어도
맛있
투표
##반기
지켜
여부
35
시켰
프리
해요
주도
으면서
수상
지급
해석
라이
파악
분기
2013
##우스
대중
최종
신경
집단
현지
500
정권
학습
2015
부인
실패
활성
80
규제
우수
통일
고등
노조
##스크
##ch
시킨
시도
보수
195
대선
작용
일으
##운드
외국인
보장
종교
거쳐
살펴
구매
협회
자주
요청
오른
추천
이미지
코스
##드시
반드시
비율
세력
정리
공정
194
박근
학년
그게
대체
임금
만족
전했
포인트
of
혼자
동물
갈등
가르
공무원
제안
특징
속도
제조
민간
법원
올리
의지
정의
야구
권력
건축
보통
연속
남북
##다고
공항
오르
약속
박근혜
므로
고요
영상
려면
지배
##ed
화장
일자리
아름다
협상
보유
요소
그리스
노인
특정
변호
불구
영역
이거
겨울
스타일
외교
식품
성격
달라
훨씬
철학
선언
항상
##은행
당연
졸업
매일
000
최소
축제
통한
회원
내놓
알려졌
도전
방침
##페인
2007
미술
원칙
##스타
재미
호텔
연구원
스트
나서
절차
강력
죽음
께서
진정
대학교
혁명
불안
심리
경북
##어진
바다
전해
둘러
유통
특성
저녁
은데
하락
물질
##ㅋㅋ
토론
바라보
하이
설계
홍보
중소기업
수술
소통
사항
만약
빠져
마리
불러
##20
그러니까
##스코
##리카
##다가
갑자기
시각
총리
나누
굉장
##BC
조차
뉴스
바탕
창조
불리
소유
절대
##프트
기분
접근
엄청
스러운
자치
실적
##le
버스
##러스
대답
더불
인수
사태
원장
열리
체육
##요일
측면
하나님
신고
고개
마케
근로
초기
경쟁력
여야
회담
근무
무역
유리
봉사
언급
의혹
재산
직장
그래도
내리
청소년
삼성전자
불법
사전
수원
##니아
주의
##od
차별
프로젝
태도
원래
통과
알아
장소
빨리
으려
골프
##as
창업
유일
소식
돌아가
2016
취업
자녀
수업
##나무
##re
고통
##ou
촬영
여론
아프
거부
근거
프로젝트
덧붙
굉장히
올랐
45
마케팅
강원
범죄
구속
계기
가리
생기
중단
인력
이탈
작년
주문
약간
지키
된다는
됩니다
완전히
변경
는데요
신뢰
36
출발
포기
법인
the
##의원
완성
일까
타이
조합
for
의한
심각
제일
인근
in
누가
잠시
확정
##니스
33
심사
쇼핑
달성
##이드
드리
과제
표정
부부
300
##ation
컴퓨
이란
효율
이때
전투
본다
대하
1000
제출
나온다
외부
시리
세월
김정
향후
동일
##심히
안타
바꾸
발언
등급
교과
32
다리
브라
금액
화학
연금
금지
##무리
커피
바뀌
지사
했으나
비중
##ㅠㅠ
강한
형식
나섰
온라인
노동자
본인
텔레
나머
달려
향해
193
소송
우주
대사
나머지
법률
으니까
해양
수용
전형
살아
신용
실천
가량
장면
주가
저희
임대
요리
헌법
##서관
컴퓨터
오랜
km
변호사
잖아요
가득
배치
앞두
마시
느껴
전남
도착
베이
상담
예방
밝혀
2006
철도
계열
##다보
##ent
시킬
데이터
재단
당국
눈물
그랬
전력
할인
스마트폰
##거운
90
의무
주인공
마무리
여러분
##벤트
혜택
당선
미치
레이
로운
리더
카페
이벤트
버렸
매년
완전
수학
출전
권리
상징
상상
강남
독자
자격
##텐츠
플레이
중간
시리즈
연구소
5000
박사
부여
배경
떨어지
태양
창출
지수
그럴
열심히
기다리
충분히
전반
펼쳐
의하
부상
들여
미디어
매장
##ac
라인
그러면
통화
놀라
요인
투입
전용
특수
케이
34
##학생
작성
인터뷰
이른
식사
아도
종류
직업
의장
##고기
향상
체결
가수
평소
##라도
그린
38
겁니다
할지
월드컵
동아
자는
부장
서울시
메시
상호
실험
학부
연장
을지
위하
집행
채용
덧붙였
논리
어려움
인한
신규
통해서
##란드
아무리
KT
연대
흔들
부대
걸쳐
빠르
전하
뭔가
이어지
뉴욕
아빠
2017
나선
긍정
##화점
네트
동의
확산
기구
##us
미리
공유
설정
벗어나
시점
인권
구입
국립
국방
무기
당하
웃음
연출
복합
제국
기계
##간다
2005
구나
한나라
한나라당
구분
2018
괜찮
콘텐츠
사이트
반복
사정
진단
꾸준
수단
종목
보상
수석
기여
물건
투자자
패션
문재
매력
폭력
##난다
사과
알리
한계
아닐
국회의원
맞춰
야당
토지
실현
기울
불편
철저
흐름
##ro
육성
구역
나중
##ag
순위
판결
휴대
연계
부지
위반
수많
그거
점점
출판
선진
아름다운
##바일
도와
예비
고등학교
명령
##일보
나갈
올려
다며
표시
모바일
37
균형
확장
살펴보
구요
국토
채권
장치
보고서
똑같
추정
##워크
자랑
이탈리아
와서
2004
분류
학원
농업
가을
주말
비행
지상
스토
연주
갖추
교체
단위
적절
대변
생태
##ula
고기
무료
면적
로마
극복
교육청
비밀
결코
통제
증거
form
입주
아닌가
든지
의도
소장
지시
##반도
무리
청구
된다고
였으며
위협
허용
마저
총선
는다는
이명
모아
가까운
그곳
고양
계산
시인
디지
줄이
55
추구
의심
기독
데뷔
주체
범위
할머니
시선
편지
봐야
보건
크기
간단
2002
정비
경향
##ad
불가
수정
상당히
에스
물리
formula
백화점
관객
노선
발행
and
메시지
마이
운용
모집
##르크
충격
당장
민주주의
고속
누군
긴장
##페이지
진보
동기
했었
과연
베트
홈페이지
아동
기원
가까이
정규
절반
연간
The
##id
인하
장비
강의
운전
두려
오픈
분리
이달
디지털
뿌리
다섯
임명
전개
전년
##ig
반발
떠올
예전
##가락
##환경
활약
실장
모임
맛집
원자
메이
움직이
전부
편의
그건
바닥
아르
진실
점검
세트
방지
원내
피해자
한반도
아기
191
39
모여
과장
인민
늘어나
들어갔
네트워크
모른다
##다면
요금
자극
기독교
해소
제거
48
근대
따뜻
새롭
소프트
공화
##ec
구간
완화
세금
고급
교류
자율
출마
유형
결합
ㅎㅎ
기타
수수
일제
유사
동생
마침
지점
생긴
자식
IT
폐지
인재
KBS
다소
##럼프
즐기
궁금
돌려
지휘
총장
예수
크리스
부처
안보
결론
단어
보조
벌이
2003
합리
이건
가로
##메라
흘러
공약
대단
문자
##em
65
강하
대우
다이어
공기
비난
미사
42
별로
개국
왜냐
베트남
정기
다이
고향
##산물
학자
후반
통하
어깨
경계
##비아
##un
최저
밝히
메뉴
실질
지도자
창원
상관
캐릭
실력
명예
오늘날
예측
싸움
끝나
들어오
주일
##러운
으므로
투쟁
정체
어쩌
192
지자
나아가
공동체
움직임
##ot
어떠
##어날
강제
인증
경주
세우
상처
관점
무시
캐릭터
부품
MBC
주차
내일
장점
둘째
그걸
근본
천만
관광객
번호
비상
공단
연습
43
41
이래
김영
앨범
군대
동료
질환
##ow
자전
희생
어울
이내
클럽
에게서
힘든
빠른
나올
##라스
최선
해졌
나요
부드
만난
면은
거듭
따로
##말로
트럼프
벌써
점수
응답
중학교
75
그려
완벽
끌어
덕분
국장
어찌
이성
식당
부탁
수립
##란다
파괴
투수
공천
알려져
##ter
거대
복잡
세워
거주
공감
별도
투어
기부
탄생
역량
멤버
코리아
처벌
블랙
도서관
이외
이기
박물
한데
재료
게다가
할까
슈퍼
올렸
##르트
표준
누군가
정해
44
품질
동원
##아지
##리오
채널
머물
회견
손해
충남
배출
단일
사업자
새벽
이명박
지자체
매각
발달
황제
시위
스페인
입학
필수
보냈
다루
스테
##어져
1990
전면
애플
평생
##메달
지분
##사자
문재인
##구요
##리트
파리
조용
아닙
제목
승부
들려
올라가
어제
46
연극
직후
내세
이웃
취임
공산
협약
주위
안내
##준다
물러
실수
다수
박물관
카메라
3000
개편
##공사
국무
집안
그만큼
도덕
대안
임시
개입
거짓
대리
감안
건너
400
꾸준히
가스
분명히
선고
주년
원리
발굴
친환경
근로자
47
홈런
한화
소녀
내렸
한국인
관람
뛰어
##um
옮겨
갖춘
눈길
통계
이자
유도
처분
동네
2001
##오르
진입
양성
자전거
##os
언제나
##하면
공모
구단
군요
후원
저축
##회장
미소
비록
대법
통상
사실상
작전
맞추
좋아
감각
석유
아이디어
챔피
비즈
일종
영양
프리미
법안
발휘
승인
52
진다
부채
형사
연락
편성
49
##리어
정원
대기
돼야
화려
권한
유가
##시오
보증
현대차
성분
개방
아무런
조기
깊이
언니
서울대
멀리
지내
더라고
떨어진
출범
저자
질서
인류
떨어져
고서
방어
키우
학부모
##ay
공포
바르
자면
조각
미군
짜리
##센트
운행
##TA
다녀
나눠
기도
##프라
190
아울
촉구
이승
수능
매체
버린
폭발
불만
냄새
지닌
51
##아버지
아까
##지어
CE
조절
건립
신체
하고
##로스
가졌
수비
##뮤니
부자
고교
소년
커뮤니
너무나
팀장
그저
허리
전공
사내
포항
여유
그날
캠프
생겼
허가
데이
오리
종이
생겨
윤리
초대
KB
당연히
이스
원전
##ir
설득
손실
나갔
점차
시내
##대표
사무실
투명
##ve
##og
뛰어난
타임
주거
생존
만났
##바로
혹시
본질
##학자
그러므로
초반
기에
논문
##버스
흥미
서구
훌륭
못해
테이
개별
성인
시티
엄청난
이른바
개성
당했
##ce
걸어
사유
##ess
##어졌
제정
53
##피스
악화
놀이
측정
검증
St
계층
현금
보낸
증상
취지
혼란
습관
업종
신설
날씨
어른
##회사
##케이션
##ers
복귀
주관
곳곳
선호
기소
일찍
담배
옛날
다행
##ri
편집
치열
관찰
신화
인공
추세
물량
왜냐하면
보안
심지어
취소
대장
빠지
부서
뮤지
첨단
상업
150
이재
오빠
유기
반도
54
접수
득점
화면
아예
알려진
광역
형제
규칙
##op
동반
역대
동부
극장
자고
고정
첫째
위안
나타내
고위
엔진
상반기
학과
세포
아우
다이어트
신라
열정
그니까
에이
아쉬
거두
1980
활발
식물
풍부
화재
근처
미사일
지니
클래
발사
기기
느낄
학문
감동
##ut
부회장
##드리
실행
경선
56
의문
고대
불교
합격
양식
취하
비즈니스
바꿔
줄어들
하반기
##터리
제재
화제
결승
포스코
##으니
용어
##다른
운명
텐데
##나다
남녀
설비
##비전
비전
유엔
스트레스
내게
지하철
소방
안녕
타자
이랑
부진
증명
##러리
상장
주력
생물
##웨어
당초
의존
경력
몰랐
화장품
압박
조심
끊임
개막
돌아오
##⠀⠀
저항
즐길
##다란
돌파
축소
경상
여인
강원도
##ood
심장
살아가
공통
로써
최대한
네네
자라
인정받
상대방
순수
사법
서민
59
참고
달하
단독
해방
광장
남부
##ap
던지
깨끗
녹색
못할
매수
흐르
전제
장군
저지
단순히
흔히
##oc
##티브
걸음
다운
소화
신호
1999
키워
숫자
명확
판사
크림
##마자
라디오
In
파견
오염
채택
대변인
단기
1998
컬러
전날
드러내
##다니
85
가게
발매
선배
매매
##ww
지향
법정
분노
매달
모자
도쿄
이루어지
밝힌
검색
구하
www
자살
돼지
끝내
지위
편안
점심
맞춤
영원
획득
64
세종
수십
##공업
순환
이슈
재무
완료
번역
원내대표
택시
아울러
파트
성향
선박
재미있
집회
1997
자꾸
받아들이
라운드
시원
서류
여당
자마자
여건
협의회
사원
58
신분
##세요
찾아가
57
런던
피하
관측
##직자
살리
취재
이뤄지
교과서
바란다
노무
목숨
인원
스님
##세대
경고
견해
취득
파이
나쁜
초청
사령
소중
위주
협정
이행
조작
연방
살인
호흡
육아
퍼센트
캐나다
농민
브라질
개봉
무상
문장
노출
펼치
##어도
일어난
대가
com
되게
연말
보관
마주
용기
호주
가난
차단
해운
인프라
대학생
두산
해진
임원
챔피언
변동
##구나
정식
##으면
프레
질병
매입
##교육
선출
걸리
어쨌
##ie
자아
맥주
합병
여수
텔레비전
의학
점유
##웨이
조언
문제점
잠재
호소
비리
본사
신세
##im
독서
기아
지대
상위
물가
만화
보존
솔직
대립
제약
PC
독특
실업
전세
스토리
드러나
충돌
오랫
##친다
##직원
적합
사단
##란히
연예
사기
일대
백성
##은이
아프리카
방해
시사
감시
떨어졌
가끔
서양
이사장
꺼내
포장
홍콩
음반
총회
당한
##ity
정치인
##플레이
Ch
유니
전북
63
회계
##IA
기지
무릎
CEO
녀석
특허
도심
아이템
사물
정착
커다란
미안
면접
2020
교환
연수
수영
가동
천안
사퇴
소문
저렴
진술
나름
66
조명
##and
몰라
은퇴
##NS
오랫동안
청장
정하
정지
평등
스위
사라지
에서부터
침체
밴드
그리스도
##카드
경기장
소수
줘야
느꼈
##워서
스피
토대
충청
지주
지명
문서
심판
는다고
심의
이틀
직전
페이스
##서트
부과
##조합
브리
고구
무렵
과목
늘리
##으로
들어서
상하
마감
FC
수시
무려
##총리
각자
부위
예고
마침내
계급
소련
상인
##해서
이념
배제
99
자네
답변
##이너
84
경비
초점
만남
커지
유대
왼쪽
성남
전원
인용
며칠
였으나
바이오
에어
피아
공주
묘사
파크
로봇
즐거
결제
성능
할아버지
주주
김치
마르
일으키
몰려
신앙
##담회
지나치
계열사
이라
72
농촌
무한
예약
트리
동양
대결
객관
연맹
대북
##마디
장사
호남
하여
고소
잇따
고전
잠깐
##니어
오바
시청자
##뜨리
학기
박정
거론
적자
명칭
풍경
##스티
61
아무것
부실
출입
연관
600
프리미엄
간다
##일리
보완
##로운
강사
목사
창의
##조건
더라구요
무서
내내
모으
95
지표
고문
조화
가시
진화
타격
태어났
무게
##연히
신한
아트
원하
여겨
테마
아니면
환율
##까요
에다
##ra
대구시
FTA
도망
한정
늘어난
겨우
##로그
접촉
만일
대학원
##FA
바른
교육감
중대
보일
##레이드
1995
남쪽
공학
하우스
보급
영향력
식민
189
##머리
동맹
실내
반도체
테크
대처
오른쪽
##th
신학
건조
콘서트
유학
일어났
간담회
테러
포럼
김성
맞이
##에도
선임
일치
대만
##철수
##도로
널리
조례
개설
해군
62
열차
끝난
디스
어쩔
변하
유로
노트
애니
수수료
긴급
위대
아라
부사
데리
돌리
네이
구성원
부당
제주도
세웠
끼리
욕망
더라고요
정서
마트
증시
권위
68
불렀
지출
수치
연령
이정
냐는
수집
장식
감염
천연
절감
좌우
영혼
깨달
뮤지컬
창작
개정안
대폭
##주시
배려
확신
못한다
문명
간부
폐기
들어간
침해
노무현
용인
IC
북부
사안
##려야
병사
이슬
미세
기름
오바마
수리
응원
군인
마당
추억
평창
죽이
융합
배당
장난
고도
실무
적어도
담보
외환
임기
촉진
##스토
근육
유출
휴가
코치
통치
된다면
##지사
노사
입법
농협
1970
상임
손가락
진료
무조건
##마스
보편
들이
만날
느라
1996
호기
몰아
패배
67
공화국
유아
협조
논쟁
바람직
뜨거운
건데
미만
##러지
캠페인
벤처
끊임없이
스케
이중
##ab
편리
구상
작곡
화성
정확히
제자
##문화
고령
체포
##레기
온도
와인
싸우
눈치
저장
걸려
무너
##가스
고유
4000
현안
주간
통증
주최
집계
도구
적응
흡수
블루
선두
곧바로
군수
답니다
플랫
어쨌든
마이크
십시오
이스라
수록
지혜
속하
빼앗
느낀
선사
직무
단속
는다면
성명
교실
드러났
금메달
엘리
농가
그래요
김종
국내외
당사자
익숙
소위
키로
대법원
지리
미니
냐고
그럼에도
푸드
그치
양국
리더십
지진
2019
단장
기후
북쪽
벌어지
한마디
분쟁
아닙니다
쉬운
ㅠㅠ
##바닥
서부
구제
이스라엘
##ED
쓰레기
라서
없애
안철수
의해서
연설
구청
유발
항목
##권자
되돌
태어나
유행
사로
플러스
부활
##카오
신선
아웃
비서
열렸
문화재
찬성
수주
스카
개통
한때
즉시
##러진
남기
1994
법무
주자
고생
중공업
고발
깜짝
초과
적당
가계
이주
지켜보
자본주의
올린
신기
##남도
74
결의
오직
선진국
kr
나눔
평양
상가
취급
비디오
감성
스파
복원
800
손님
수백
구현
청약
파업
집권
대강
종료
도대
CJ
황금
71
73
내린
전후
##건설
##ia
훼손
상실
SNS
취약
라면서
국정원
기쁨
일시
##단지
이어졌
해명
거치
불가피
강점
구미
컨설
선보이
120
몇몇
살짝
##ea
일자
이혼
인문
77
도대체
뒤집
입지
그렇지만
동력
변수
to
다름
욕구
경찰서
고맙
재능
##ew
##영상
확실히
재건
교황
신속
어려워
음성
민원
결심
자문
신부
주행
가볍
소프트웨어
뚜렷
메이저
가공
조달
가상
열린다
입증
##나이
최소한
스크
밀려
박람
젊은이
스키
명품
##힌다
비정
든다
사로잡
##스탄
후기
급증
공헌
알아보
SBS
트렌
과일
출산
강연
참조
선도
동남
섬유
시범
어두
줄어
계시
여서
##낸다
현행
추석
파워
##우드
서명
때로
민중
장르
재생
과도
여의
종종
멈추
소스
한참
상무
영웅
아메
##다리
급격
트위
그대
소형
바위
김해
들어왔
고양이
아시
##거렸
나타난
에겐
##래도
한지
폐쇄
일방
아마도
싱글
입시
원정
한번
GS
76
##생활
전주
장학
기금
조지
극단
학회
시계
이민
사회주의
지냈
테이블
농구
남겨
휴식
빠진
모색
##온다
야권
합류
김대
##시코
칭찬
국방부
거짓말
로스
##ㅋㅋㅋㅋ
여섯
최우
의자
청문
아닐까
붕괴
##시다
##정부
비행기
69
거절
법칙
아저
입구
용역
존중
음료
리라
천천
코드
가방
진영
더군
주기
##iv
어울리
88
중반
침대
정성
진리
김태
담긴
연봉
마사
대륙
##항공
천천히
이용자
좋아하
##ion
세운
임직원
수지
복수
믿음
붙여
진주
##브리
품목
아저씨
셋째
흔적
가질
필리
동영상
한가
영입
가만
오스트
경매
기상
지연
##스턴
고마
통보
미친
박지
아카
6000
돌아왔
이리
입찰
그쳤
포르
연료
##그룹
선전
배상
각국
굳이
신중
cm
인연
기운
구도
플라
유산
##ard
산하
한쪽
##어버
타인
물류
데려
마법
어쩌면
전해졌
노후
아무래도
구글
##메이션
대개
진지
충족
양산
부딪
타당
축하
미술관
빌려
장수
아가
떠오르
저기
너희
8000
국어
##워하
소외
변신
심하
시달
본래
조약
예금
##나마
순서
차관
임무
양상
당부
올바
동작
성립
청사
자국
78
요건
길이
계좌
1992
무사
갈수록
안팎
구원
가르치
텔레콤
구별
현황
트위터
지도부
##트리
징역
금속
베스트
진학
케이블
화장실
##덜란드
쓰이
시킨다
들어와
블록
커뮤니케이션
둘러싼
승진
공인
##천시
메르
동해
비정규
새끼
화물
일기
네덜란드
조항
급여
해안
점포
압력
부작
엑스
편하
700
퇴직
받아들여
장악
##ame
비정규직
대행
채무
원주
기법
태어난
박람회
김정은
맞서
탄핵
우울
##디션
골목
고리
마크
색깔
관료
모니
##ist
쳐다보
태평
돼요
높여
공작
간접
무척
무장
예선
마디
워낙
잡지
출근
치르
1960
중동
지나가
영화제
이닝
엄격
##라리
비로
평범
도달
1993
##퍼스
파일
환영
무용
육군
필자
전당
향한
주차장
경영자
발전소
을까요
대목
왕국
안심
주부
재배
이걸
오프
##북도
영장
공략
도내
##이브
98
##리스트
담겨
일관
유동
챙겨
유력
이슬람
명단
레드
일원
보여준다
구경
저런
앞장
##TV
푸른
가벼
##ell
철강
##증권
파티
##ep
##어진다
멕시코
도중
실정
방사
넘어가
베이징
참가자
중도
02
패턴
주석
세부
영남
비타
##50
깨닫
떠났
##산업
매출액
강요
##회의
가사
드릴
마친
진흥
후배
유치원
격차
관념
귀족
그릇
체육관
학술
종시
휴대폰
동쪽
##시장
##디아
재개
벌였
전시회
교육부
체크
스튜
로드
용품
입술
충실
섭취
AI
188
고구려
##EC
될지
환상
갤럭
클래식
붙잡
##ver
해고
보험료
갤럭시
초래
민감
오해
탈출
동화
재벌
공제
##스키
##ff
##ill
베르
##덩이
상생
이룬
심한
으려고
##30
하여금
과세
쏟아
여지
가요
파트너
치즈
총괄
##운동
계단
신인
십니까
중구
박스
전설
개척
표면
##하여
##PG
손상
테스트
82
귀국
비평
KIA
소요
체력
탄소
향하
학위
유전자
침묵
대대
줄여
넘치
부각
마땅
애니메이션
180
정수
선교
스웨
셔서
관세
##레인
메모
나설
충북
바깥
날아
81
##IS
우유
서쪽
살해
##tic
7000
뷰티
틀림
두드
사드
유권자
어리
신입
화이트
이른다
홀로
살려
기원전
##총장
해상
이젠
계절
1991
개헌
정작
명성
다스
대거
##CC
작동
##싱턴
st
불행
상사
PD
랜드
카카오
적발
86
영광
엔터
전선
##게요
공중
확충
##피아
합동
##들이
위상
먹스
전파
한층
점령
온갖
실망
##컨대
의뢰
조합원
반성
영토
##거래
역전
임신
확률
포스트
페이스북
드디어
어둠
진심
전지
유입
목록
으시
교장
가깝
모았
시정
부끄
분열
징계
하위
진로
저작
배달
##est
매주
눈앞
##로드
해체
강도
형상
대상자
추적
내려가
수분
##수수
해질
79
까닭
그분
스티
스런
태국
억제
동구
동북
경찰청
상환
양자
식민지
사이버
##아리
바이러스
특유
예외
비로소
대량
무언
호수
성취
일본인
육체
던가
즉각
##ak
왜곡
관할
매니
시급
오피스
##포르
##톨릭
컨설팅
으리
봐도
완공
도약
이종
마라
87
대체로
중화
해제
규명
역임
##리즘
탑재
기재
FI
터미
모니터
철저히
허위
이적
1988
언젠
##uc
비타민
압도
##바이
202
워싱턴
심화
막대
상당수
##립니다
빌딩
##eg
욕심
두려움
디스플레이
신세계
##all
처지
감상
무관
본선
간주
96
스위스
운송
판정
탄력
옮기
공시
존경
##져야
김동
구멍
##로지
노예
당황
##어질
##ip
##ram
신발
촛불
당일
봅니다
해진다
방학
자신감
가해
독재
꿈꾸
캠퍼스
선거구
성폭
##네시아
충전
내면
오가
##하우
원자력
버전
고백
co
당당
페르
꼬리
시상
부하
광주시
청문회
클라
지지율
전역
수급
97
돌아온
##려서
비례
##ob
회전
토론회
참사
놓여
들리
어우
재판부
고수
##사고
가입자
CC
빠졌
원고
##긴다
EU
상공
착수
최적
포도
모래
금방
신비
터키
##어놓
의결
간호
뮤직
앞둔
가속
넘겨
과감
시골
중점
##집트
여객
00
이끄
유해
어려울
외면
우리나라
방영
##너스
멋진
가문
내수
재난
선보였
이집트
##ang
91
미터
문의
##타인
자세히
한글
깔끔
1989
포스
##ine
보전
오페
줄기
타이틀
##tt
아름답
##ok
박수
##ub
농사
동계
라이프
증대
김현
비하
출장
그나마
서술
위성
극대
소음
나타난다
리조
치킨
프라
대외
즐겁
글자
둘러싸
회관
터미널
노리
신장
매치
필리핀
주소
특별히
들어갈
오랜만
관절
설문
국경
##다수
갖춰
강릉
트렌드
지불
고사
대금
풀이
고르
아시안
##본다
기대감
##art
걸렸
공직
##시마
##our
허락
제조업
먹이
##저히
연상
구름
채워
소금
##단체
살아남
83
산책
준공
원가
공업
IM
##랑이
진상
한강
언젠가
유연
89
실시간
흘리
경로
##가포르
농장
알렉
MB
기호
한숨
연애
재밌
##의자
##번에
연예인
탐구
동참
짐작
자발
오토
그야
위로
아나
스코
중시
사냥
용서
건전
한미
전사
싱가포르
독점
기아차
##관리
금강
착용
행보
수천
대원
하얀
일곱
##트로
반박
잉글
중독
최상
상승세
92
사업비
유용
지부
쇼핑몰
잡아
출간
소지
지침
보육
사후
부사장
즐거움
꼼꼼
##킨다
핸드
워크
귀여
코너
혈액
포트
식단
도민
연평
입니까
폭행
탈락
타이어
인데요
1987
자존
양쪽
성실
결성
##스티벌
케어
페스티벌
답답
안양
이어질
모를
가전
신임
연인
당원
아끼
다를
형편
부작용
달아
면세
주류
상자
지인
고지
고시
##져서
무력
거친
봐요
소환
산업단지
94
앞세
일각
주연
정면
Pr
상금
데일리
표기
차기
특검
끌어올
공고
인도네시아
붙이
특화
##아이
기온
스승
모순
애정
노하우
##소득
예능
시나
오페라
요원
건가
부드럽
스웨덴
##ud
입사
250
떠난
그간
부패
##든지
시집
부리
##일랜드
##TE
회수
마산
행정부
평택
올바른
농산물
사라졌
가톨릭
김재
격려
부른다
상식
인디
먼지
##바지
각오
가맹
운전자
안타까
난다
리얼
사우
급식
갈라
##받침
리조트
스페
더구나
용산
항공기
배터리
시중
참으로
##이즈
행진
권고
게시
국당
분산
북미
수면
지낸
안동
##느님
돼서
##둘러
증언
특이
아이폰
끄덕
미칠
##렇게
비대
금호
무선
빨간
동서
돌아와
일어
정밀
이모
출생
당해
높였
이듬
어르
해수
kg
그리하여
신사
사무소
원천
연휴
마쳤
감자
사립
남아
뛰어나
승객
남겼
댓글
슬로
매도
사자
93
창립
하느님
타워
슬픔
철거
맥락
돌아보
모시
날개
태풍
걸린
패러
타운
name
예쁘
IS
증권사
병력
되찾
넘기
비서관
도청
누나
얼음
모터
th
단백
##NA
중계
##미터
달한다
일지
발효
나간
청산
인천시
가이드
피로
박정희
9000
장착
돋보
시공
비극
대항
그야말로
프린
가만히
이듬해
기울이
최악
명시
항의
생일
클린
거울
서서
도서
성질
김진
사찰
플랜
비싼
##ㅠㅠㅠㅠ
만기
단원
유전
187
백만
186
바닷
##워드
김상
스탠
##배우
협동
드림
왕조
부산시
총재
명백
실태
냉장
사인
친절
편입
몽골
##ev
메이크
늘어났
대다수
도발
급속
세미
건지
페이
화폐
물품
용지
##루션
보조금
아픈
다가오
이겨
그라
누적
걸로
내각
여의도
조리
따지
이마트
한창
가려
누르
골프장
계승
실종
심정
머릿
가르쳐
됐으며
내지
어릴
실체
세탁
##어내
개소
눈빛
사연
코트
이럴
스프
마켓
인테
강경
어머
일반인
실용
조용히
주먹
##igh
관행
면역
플래
기조
치유
라니
바보
헤어
실리
낮추
무덤
다룬
예쁜
##가운
이루어진
##든가
##ail
과학자
달했
전담
중국인
확립
죄송
대주
##마크
어르신
왕자
납품
합쳐
##풀이
화합
네이버
챙기
03
서해
납부
따위
백제
나란히
최신
##구리
김대중
전적
디자이너
줄어든
잇따라
단체장
일요일
##어리
##처럼
철수
제고
자사
돌입
입원
코스피
IP
신성
최다
차장
치러
잉글랜드
관여
학력
1950
GM
분할
춘천
무언가
##느리
즐거운
조국
거래소
생성
탁월
보인
크루
곤란
##ik
무산
페이지
녹음
애초
아름다움
김포
분당
한도
감추
뒷받침
국세
모은
생생
명절
함유
아픔
아스
가리키
##버트
현역
성서
인종
단단
수렴
##키지
위축
유래
후회
주재
용도
채소
출석
즐겨
추모
전무
증진
육상
단백질
##바람
아쉽
위탁
05
일행
태평양
거점
책상
##잡이
흥분
구석
고집
뇌물
월급
채우
만만
##데미
들어온
접속
폭탄
멀티
외모
고추
방치
천억
한두
솔직히
김경
철회
패키지
더욱이
부드러운
##시스
mm
차라리
산림
국면
주저
놓치
골라
유혹
아베
김기
부가
모른
리스트
교섭
흔들리
##──
서기
##대문
겨냥
드러냈
이수
상속
부적
책임자
여권
당분
장례
골드
태양광
아카데미
or
버려
##러져
궁극
성경
NC
정통
피고
의류
##ich
선보인다
갤러리
차트
기적
어라
벌어졌
심해
비싸
발급
##가루
승강
절실
이치
향기
배운
유적
건의
메이크업
연합회
##테크
900
그림자
기술력
원료
판매량
측근
담당자
##드로
연패
절망
##어넣
흥행
실점
대지
감축
청주
뱅크
합성
##성장
생애
빛나
##먼지
주사
내밀
적정
이영
재원
##ue
스튜디오
고조
상영
숙박
인테리어
자칫
순이
통장
표명
마스터
놀라운
시세
가라
전신
이를
재직
강세
범행
FA
오일
민심
새겨
삼국
서서히
일체
와이
호응
개시
흑인
피아노
스크린
미국인
크리스마스
아리
나쁘
기차
벌어진
##DP
이야말로
찾아보
1986
재건축
건국
pp
##용차
추락
나아
인격
어린이집
원유
폴리
재정부
토요일
명분
부근
조만
펼쳤
주방
아랍
Un
##ran
01
병행
액션
바둑
해설
내정
##스레
번지
전라
김일
인형
어떨
##동강
아일랜드
##ttp
보좌
저소득
이뤄졌
윌리
드래
공세
접하
##둥이
##티나
##데이
소원
예컨대
생길
편의점
시신
우위
포털
http
착공
원활
쟁점
##오프
##ort
일환
천문
플로
사무총장
내보
출판사
놀랐
떠올랐
오브
빠져나
지붕
야간
여사
분포
발라
##if
야외
노르
발목
대박
평론
##제품
세제
폴란드
한동안
도모
바뀐
시트
발주
퇴근
창문
새해
던져
서식
못지
세일
언덕
정규직
취향
예술가
김용
문구
텍스트
고스
지경
순천
후속
당내
창고
다행히
명회
배정
논술
선행
식량
한국어
이루어져
##산시
교정
영감
축적
공익
##니즘
자부
##임스
##현진
힘입
환경부
콜라
벌금
노동당
직장인
##해야
##구역
오류
교차
프라이
남한
누워
메인
무지
응급
노동조합
숨겨
조선일보
바퀴
열기
IB
##꺼번에
한꺼번에
##리포
이라크
##셔널
반란
구호
절대로
수험
관장
김연
동남아
그해
초월
억울
더블
간판
앞선
오사
고장
양념
괴롭
크로
단축
넥센
NH
고무
##ate
대해선
##ge
다녔
Al
##ork
안경
수소
터널
비트
물고기
마르크
수당
트레이
억압
음주
비치
정말로
Com
솔루션
들여다보
자제
결혼식
뒤늦
재고
전교
서초
유효
장학금
벨트
하드
나선다
날카
스타트
면세점
던데
별다른
은가
으러
##부르크
조종
의상
뛰어들
##러드
생계
주한
명문
발명
몰리
동아리
등지
아메리카
LED
견제
중개
계곡
비유
추측
독도
외치
자회사
건수
타입
1985
변형
대단히
##ne
##토록
입단
국무총리
상주
염려
부천
피자
1500
만주
어려웠
당분간
미세먼지
더군요
Th
송도
조만간
낭비
잘라
공기업
피곤
조상
등판
스러워
응시
인쇄
중고
관람객
##ong
FIFA
주름
전술
버릴
차세대
유물
##러워
드렸
온몸
130
제임스
리스크
##런스
공군
##ment
방위
낸다
커플
여신
강행
##어붙
자존심
이태
수산
개장
좌절
천재
솔로
##베이
포괄
간식
조세
감수
재현
종로
단점
양심
대조
불거
게이
머릿속
지성
##버그
동성
사격
남긴
도저히
정교
성당
시가
차질
시나리오
##주의자
등산
의약
제어
성숙
서둘러
색상
우스
티켓
후쿠
종전
교원
임상
경제학
New
역설
##ure
감지
US
An
김정일
가벼운
단다
달랐
계란
최순
로비
갑작
국산
히트
목격
세미나
부도
소용
감옥
이마
중견
관중
일어날
일으켰
케이스
이데
동향
비결
불황
위장
투기
어차
언더
건설사
저하
카이
현직
당뇨
한자
코미
소매
장성
1984
미쳤
뛰어넘
가짜
추출
재학
여왕
처방
들어선
종일
##OC
중부
될까
연승
국왕
주고
아쉬움
시술
강아지
태극
소주
드물
법무부
산소
제사
면제
공산당
아냐
두루
음식점
세련
똑같이
한류
여주
저서
근원
##걸음
간편
나뉘
구두
트럭
공방
내외
모형
어차피
발간
내달
베이스
##ial
신념
부스
이윤
무서운
외국어
의정부
늘어날
약물
공정위
요새
니까요
##핵화
직면
비핵화
인접
중순
혈관
##세포
운항
출자
프로세
냉장고
사형
소셜
전철
지능
수성
거뒀
CD
오케
달라지
약화
과잉
어두운
사령관
##고리
선수단
110
160
도요
브리핑
시켜야
##닉스
주유
체인
##se
지법
증세
응용
낙동강
범인
지검
##스트라
써야
모범
##일으
불러일으
오로지
찾아내
##아내
맡기
아이돌
천하
확고
원작
염두
연세대
수령
특위
IMF
지목
교통사고
호기심
##뜨렸
무효
##드라
김수
쌍용
사업장
오스
군주
민생
행태
정한
명의
랭킹
다큐
제휴
Con
십자
배웠
전직
강렬
##가리
정복
윌리엄
##야마
양보
증인
떠올리
지각
소멸
늘려
댄스
주고받
주머니
##ber
나와서
꼽힌다
##트라
복음
다짐
##NG
등록금
데이트
나타냈
낯선
우정
유족
##공화
이산
오를
기다렸
꼽히
상세
발레
협박
반사
걸친
감당
방송사
넘어서
원조
소감
항만
터지
##레이션
이순
양도
##하나
무인
입력
창원시
둘러보
타점
마약
새우
재활
커뮤니티
food
로맨
수명
몰래
포지
국적
지났
바지
니다
범주
de
베를
허브
##동생
최후
##관계
우연히
요약
라이브
대수
부총리
베네
착한
순이익
열매
입맛
##80
카운
안쪽
냐면
코스닥
1982
매니저
가하
노릇
##연합
마늘
보물
무죄
노란
단편
삭제
패스
류현진
##다지
블로그
##위원
남양
도리
트로
안다
수송
정세
아닙니까
계신
저널
##비드
반짝
한우
항공사
치매
끌려
광범
인체
중기
빌리
##올로
경관
으리라
보여준
과시
##리티
세이
돌렸
##시간
포착
무섭
##iz
분배
##저기
##유럽
생리
이병
예의
모이
유망
으려는
내주
웨이
따져
떠오
약한
보충
선포
중세
화해
강좌
##화문
여기저기
LH
히로
##레일
부양
영원히
일부러
내려오
##ain
미루
청정
위안부
첫날
inst
마라톤
##ore
더러
적립
건축물
여덟
키스
한양
얼른
금감
세무
캘리포
북구
공립
불량
잃어버
하천
대왕
의외
목포
악기
교도
억지
토끼
신상
##ian
살피
우즈
그래야
오피스텔
##놀이
부재
혼합
대국
맛스타
캘리포니아
단행
머무
멘토
국물
노벨
도박
찾아오
한진
급등
잠실
바꿀
속성
업자
참모
##man
결단
빈곤
몹시
고인
인치
반전
코미디
수여
마스크
제발
##토리
광명
정답
##유산
수시로
수신
중립
프랜
취미
##스토랑
레스토랑
감기
버티
고려대
140
장미
남구
기둥
개그
##루스
지역구
시달리
고스란히
시리아
불안감
보낼
라이트
표지
불신
지난주
트랙
소극
호랑이
안타깝
기성
##공화국
수습
박영
유인
신혼
학업
합작
선제
앞장서
타율
중재
##머스
공자
##빨리
승용차
선조
호르
장인
가져다
혈압
침략
규범
관해
울리
건네
통로
문득
던졌
대략
활력
한결
시립
##ss
Mar
운동장
파라
토크
이뤄진
전액
물려
##av
마구
인민공화국
아홉
무거운
집착
밀리
러브
##외선
오스트리아
어지
사명
등기
밝혀졌
개관
1983
리스
아닌데
##━━
피할
파란
##ov
틀림없
##무성
내세우
모드
성사
서방
##쟁이
클리
간절
##ee
흑자
리모
달린
용량
##ly
생산량
기쁘
느냐는
##지니어
주어진
상권
견디
증정
각지
매월
추산
농담
악마
이분
업적
손자
##올로기
네티
온다
시체
가라앉
달콤
##지능
권유
줄일
조그
반려
야생
거둔
소유자
우연
마이클
브로
양측
##저스
충성
복무
인공지능
중심지
당첨
노총
기다려
인성
감싸
##주얼
터져
##셉트
그만두
본능
공직자
제의
대접
화가
구사
SM
복구
수년
군부
##ry
밀접
동아시아
피우
단호
##af
김일성
특별법
원형
이데올로기
민영
추상
물러나
아가씨
체중
출현
##슬러
파도
포르투
##ight
정무
김민
배워
글쎄
수확
연다
수위
도지사
##DI
어느새
애국
동행
목욕
마르크스
##들여
였을
통행
이지
사막
신축
내비
김지
에드
자매
무더
1979
그다지
해라
돌아갔
살림
무너지
패널
##로나
일선
우린
네티즌
내장
모험
AP
##ant
추격
도둑
접목
김광
자영
문건
식구
이사회
해져
시너지
라기
날짜
위생
청춘
내놨
영리
인턴
BM
맞대
상한
정황
힐링
안성
은지
촉촉
면허
##40
주전
헌신
효력
생선
모금
전도
소홀
거세
책임지
바쁜
on
##FC
헬스
광복
스피드
기어
##end
되풀이
하도
관리자
옵션
##오스
자격증
별명
집합
착각
밀양
국비
벤치
##급식
약자
##타운
보복
만성
금감원
동지
후손
##니스트
어떨까
치아
가중
보리
무상급식
반찬
헤드
필름
광범위
광양
가죽
소득세
ST
##ack
플레이오프
기뻐
Ar
말레이
##광역
토록
게재
옮겼
경찰관
찾아볼
올릴
1945
메르스
탄탄
고종
해산
샐러드
신종
으신
재판소
좌석
##구니
학년도
아이스
가맹점
신탁
진전
부추
따라가
베를린
영주
마비
숙소
##ith
워터
행성
에피
##밀리
카르
궤도
장교
시상식
경사
교역
지르
##oll
불꽃
##ast
면담
계정
사도
미드
군데
##ence
동북아
파고
열려
노동부
글씨
상원
##마토
타임스
MO
##식간
바쁘
지형
접어들
##그레이드
잔뜩
업그레이드
##걸이
##ass
강해
베이비
유교
탑승
가까워
물음
잠수
최강
소집
구청장
골든
미용
와중
버린다
수상자
항소
##per
관광지
##고속
절약
1981
구리
보스
사흘
##agram
오사카
서버
##ung
승강장
##두르
커졌
성형
체질
삭감
##거나
##크라
핑크
내릴
##랍니다
백악
각기
배포
편견
높일
보강
##⠀⠀⠀⠀
##브리드
명목
경영진
알파
아르헨
##릭스
급격히
스쿨
하이브리드
바꾼
##olog
맞춘
동아일보
여파
전락
가리킨다
06
가져오
고쳐
이득
수련
모인
어딘
축산
알렉산
마리아
아르헨티나
##ond
제이
동굴
렌즈
현명
으셨
##무지
감사원
써서
메달
양반
백인
##베르
처장
출구
정조
혼인
##바라
선명
지상파
예산안
##OS
반해
유방
아무튼
GDP
다가가
##프리카
정유
레이스
보살
수강
미스
종업
침입
부를
창단
문헌
##차례
##oh
##ear
석탄
중지
행하
여고
담론
추첨
신동
먹방
천주
강남구
정국
낙찰
구장
순식간
미지
엇갈
풍성
시비
이승만
플라스
승점
끔찍
느냐고
인조
횟수
교훈
낭만
물어
이어진
자이
임차
전기차
메리
반환
전송
##ice
##이도
##IC
##ust
이대
기증
꾸며
대치
발음
대한항공
하나하나
##파크
약점
고가
특혜
전이
##릅니다
임의
레저
일련
예언
##tive
##ory
비단
공영
브라운
예배
삼각
##보드
사각
##저리
렀다
진동
버튼
일으켜
수호
아티
발길
재발
고속도로
사료
종업원
지원금
배우자
못지않
##키스탄
##공항
진압
열쇠
##조리
끌어들
감면
드라이
당기
배분
메일
갈아
해변
클래스
유독
배울
요양
의약품
일산
해결책
쓴다
185
서점
법조
하수
느껴졌
드립니다
안방
사이즈
부시
가르침
1930
해법
소설가
희생자
항구
장벽
ch
경전
사라져
조카
공백
ㅎㅎㅎ
열풍
시카
관심사
당선자
기하
중년
##광역시
해운대
##병대
언론사
지극
피고인
관하
광화문
레인
소망
##PS
나눈
호르몬
벌인
치우
04
영구
주역
비틀
갈비
나빠
쏟아지
기숙
에어컨
당대
종사
상품권
분량
평론가
단말
법령
야기
간격
심리학
올라오
##밀히
청원
MC
스러웠
울음
스킨
타협
서사
그런지
이메
교양
뜨겁
막내
세르
단정
복용
모스크
##운서
101
민정
통산
외교부
부착
##데스
왠지
작곡가
##ord
치명
활기
정화
##센터
아나운서
루이
LA
화살
##ational
임진
김병
빨라
이어져
포로
아사
배송
철학자
이어진다
응답자
도시락
장려
거품
야채
너머
일일
쇄신
분자
사방
SU
폐기물
셔야
재계
##의식
안주
사제
풀리
분담
##타르
막상
기르
물체
가루
지식인
외곽
소모
경위
센서
전임
파주
회피
발탁
##저우
##두리
바랍니다
##국수
119
사모
농도
비추
단절
배후
마인
함수
수색
하하
소나무
##리케이션
협업
포르투갈
보석
이원
나타날
드레스
과자
##로우
모의
어렸
등등
준다는
##세이
처녀
##모토
터치
사라진
강동
##몬드
저소득층
공존
떨어진다
배구
광산
배신
한전
아하
두려워
좌파
170
인자
##ER
일수록
상정
크리
유성
수질
금요일
##ld
정해진
##널드
전방
##네스
국세청
지옥
내걸
속한
상용
리듬
엔지니어
한방
결승전
##사업
스리
연이
득표
아줌
대주주
열악
Pro
연안
간직
껍질
선비
일으킨
탄압
천사
구해
입점
##ook
수장
##행위
불린다
오이
내다
검진
고치
요법
천장
##PGA
홍준
행운
민속
고성
윈도
내려놓
1973
스펙
자영업
아줌마
구절
티비
침몰
##카락
##oun
##티아
머리카락
애인
개체
제작진
신생
##서리
스카이
먹거리
다면서
로켓
어음
통신사
발의
Sh
##레이크
이메일
떨어질
척추
합창
오락
대세
유감
드러난
##크스
##쓰기
차려
망설
유승
나노
##age
탈당
고고
보증금
간섭
감히
나눌
요시
1978
거실
비자
상상력
파장
말레이시아
##지부
매개
농어
스페셜
사양
인과
돌보
쓰여
부유
일일이
포지션
교통부
당선인
LC
메모리
##내리
일제히
연고
시어
흡연
사소
##더스
그레이
재해
들렸
대사관
넉넉
안산
휴양
위해선
매운
알코
걸까
출동
이어서
익히
월세
극심
초등학생
도출
단식
도우
실은
간호사
벌여
명소
중산
자유주의
그루
쌓여
되돌아
유료
향수
블라
##멘트
거칠
오프라인
Sp
홍준표
부임
가령
회화
백신
산정
그랜드
제법
추위
엄청나
오버
KBO
LTE
기업인
안겨
백악관
전차
##다임
##소드
con
택배
패러다임
횡령
수직
원화
한눈
선보인
연구자
박차
사망자
독립운동
막판
으려면
##70
지루
서원
병역
플레이어
그까
##ect
발상
##신문
박원
톡톡
난민
퍼져
기세
월요일
조조
강변
##ens
귀신
조율
증여
어리석
향했
##aily
갖췄
##테이너
유세
개조
요한
신나
온실
암시
파격
공조
합법
차분
지나친
오케스트라
튼튼
DM
들어올
1920
상수
일가
##러졌
들어간다
##개발
일본군
서정
매트
푸르
똑똑
이라도
##렉스
아님
획기
##60
교재
##스카
책정
방금
원소
생긴다
부친
##바이트
방면
괴물
으론
##로움
아아
디스크
이쪽
원대
갑작스
우대
##철도
광역시
남용
분단
KTX
##우리
크로스
중복
찾아왔
반지
주권
##교통
##그라
##경기
MS
든든
출력
##키아
##먼트
중얼
검정
커버
금품
##ey
공연장
아닌지
신자
이인
장기간
산다
프랜차
국악
엑스포
에이스
폭넓
##매김
때리
##아웃
##AS
설탕
출제
1972
자리매김
느낀다
홍수
##테르
이뤄질
하버
복제
##트롤
암살
자질
1975
##베이터
밀도
사마
자립
1974
까다
분해
경유
프랜차이즈
184
이룰
인문학
우편
##부로
##봐야
플라스틱
간사
집값
스틸
다채
로버트
##테스
대충
받아들일
치밀
잔치
실전
유비
##mer
보행
유진
정립
##러움
##에이
선거법
##ef
그늘
사면
##무기
햇살
알코올
부합
에코
산출
##stagram
##에르
##iet
킬로
하원
달래
##ib
신약
직선
상해
사령부
되살
파산
초콜
연도
가마
기한
멸망
짜증
자부심
수고
헤이
승격
학살
놓인
콘셉트
치솟
물결
II
1976
박주
나치
토로
필드
광부
회동
곡선
돌아다니
보험금
놀란
옮긴
우세
북측
답했
##업자
미분
야마
개개
전진
매진
해임
협동조합
외쳤
본관
산단
평일
은하
##숭이
라틴
애요
다닐
적대
누릴
흥원
달렸
진도
송파
신흥
##사스
아미
케이크
노스
스미
나폴
신하
전격
공로
덴마크
마루
내신
잡히
##수수색
본다면
키워드
OS
사설
온천
##원장
서장
탐사
압수수색
음모
할리
##튜브
은혜
농림
SS
적혀
자책
납치
극히
제로
훗날
주유소
드린다
기울여
유튜브
##IP
사교육
모리
흘러나
말기
이력
##AT
후퇴
양파
실효
가져가
차림
최우선
방송국
외출
연산
들으면
인삼
al
문인
피의자
고는
설사
학계
인건
연동
영문
감탄
이례
제철
##사리
앞세워
알레
학대
재즈
좀처럼
다름없
하계
스토어
CCTV
##저트
어색
UN
선원
반기
국수
통영
귀찮
정직
##옵니다
안개
팔리
정시
반갑
##바다
회원국
##자치
동포
압축
초록
해치
##특별
##셔츠
이만
인건비
약해
BMW
어긋
보람
컨테이너
올라갔
청탁
고래
퍼지
필연
서적
헨리
창설
충동
클린턴
우물
En
크루즈
청취
##qu
눌러
피트
기장
한국은행
ㅜㅜ
##ism
그래픽
발자
미흡
우울증
일간
##eb
말라
할수록
맡겨
연평균
간장
실감
내역
첨가
가치관
새삼
잠재력
의제
차가운
열릴
이뤄지지
사운드
수차례
신재
상향
거제
끈다
전수
관해서
합계
그런가
부수
에다가
을수록
##잖아
수원시
잡혀
ICT
유한
나비
천황
피터
##위원회
동호
기각
낚시
디저트
##ct
폭로
걸릴
원금
한겨
○○
동경
비명
가산
국민은행
바꿨
입자
가담
정자
179
상관없이
화두
신한은행
교부
햇빛
##치기
탈퇴
##시설
신도
어선
군단
펼쳐지
엉덩이
##르르
며느리
사직
카라
둔화
배수
레오
에피소드
풍요
파생
성폭력
아산
남동
시야
저렇게
##금리
##산부
이화
머물렀
외식
오만
프란
더라면
닥터
천지
옹호
져야
문법
왕위
한겨레
DNA
모씨
텍사스
지우
조류
##프리
친정
##코드
입체
입국
김연아
달려가
위임
이순신
집필
김선
가설
핀란드
발걸음
전복
혐오
Cl
임대료
유의
우회
출국
달라졌
종사자
이노
흥국
기생
상의
왕실
박종
석사
실습
OEC
액수
강정
1977
파운드
식탁
말리
숨기
뒤따
원수
센트
추경
총수
보름
유머
봐서
##연구
쾌적
캐스
숙제
OECD
맞물
위법
성주
심상
친척
HD
휩싸
역동
##먼스
부풀
##집니다
##걸리
천주교
재킷
대법관
공통점
글쓰기
함부로
우아
1968
##ex
쫓겨
동방
##와서
밀집
가진다
취해
플랜트
국채
나간다
아테
구제역
##tern
떠날
##소시
장난감
컨트롤
##방울
해야지
속속
엘리베이터
속한다
약하
돌아갈
키즈
참전
폭풍
연루
무늬
친일
##스크림
막걸리
대여
매번
운반
##성기
바디
원시
##멘터리
전교조
조회
##pp
ET
##천군
만족도
아이스크림
거꾸
는구나
1971
탐색
디젤
밸리
봉사자
초콜릿
아키
양육
김장
##ES
##임금
고립
수혜
자외선
##평가
##실험
경과
그토록
넷째
엘리트
몸매
이경
딸기
상기
친화
간단히
수필
오렌
연비
지장
농성
인가요
엉뚱
끊이
저질
다큐멘터리
농부
알렸
김승
데이비드
클러
고난
날리
이길
매립
an
세균
성령
변함
긴장감
적시
염색
강점기
여전
변했
지지자
몰라도
온통
휴일
##기에
항해
천국
##AR
SP
##운다
재선
으라
홍대
즉위
리서
트라
항복
##살이
유신
##폴리오
길래
##민주
다시피
교대
포트폴리오
##ary
산지
교감
산악
##이팅
위력
거북
귀여운
ㅠㅠㅠ
함대
찾아온
섬세
동국
계약서
350
파문
경호
박성
제보
넘쳐
유가족
##타이
본성
쿼터
##소연
세자
어떡
실려
여학생
비닐
당할
게이트
헌재
걸어가
업소
##포구
루이스
배추
특강
애플리케이션
변해
분과
아티스트
리드
쿠폰
이해관계
페어
환원
##난히
봉투
볼거리
모니터링
문화유산
처한
라스
씨앗
단말기
앤드
##틀러
정의당
##포먼스
프레임
프로세스
다카
공문
국군
퍼포먼스
부른
다가왔
나마
이온
동정
지원자
섹스
그제
특집
부엌
털어놓
이뤘
조속
용이
지문
환승
백작
적성
여름철
##소문
##어요
딱딱
생물학
걸맞
1948
펼쳐진다
114
오렌지
##자원
##질랜드
손쉽
사나이
언론인
181
냉정
박지성
모호
최경
대입
##욕장
안드로
리서치
이루어진다
##동력
검거
관습
생각나
스물
특권
연재
커질
벼슬
다툼
모스크바
공격수
다지
도요타
손바닥
##버리
##타리
시드
간신
이대로
다투
우호
산학
##퍼드
비스
성폭행
파동
뉴질랜드
현관
신랑
대인
박찬
폭스
권역
가져야
서면
놀랍
거꾸로
제치
초상
배고
아랫
잠정
구워
명확히
넘어섰
가축
마음대로
상륙
관건
인내
꼼꼼히
호평
메디
##가와
진정한
성찰
만점
표출
유죄
취한
짐승
아버
소니
양극
행렬
지역민
토마토
볶음
##LS
방통
화상
##규모
도마
한인
백지
탐방
핵실험
안건
줄곧
##이치
08
올레
시속
183
프로모
주교
##관위
체류
159
김무성
장단
아르바이트
리버
슬픈
연소
##커녕
설화
헬기
빼놓
함정
##나물
공산주의
소서
수목
##볶이
김주
스타트업
견인
급히
마찰
미스터
기인
돌이
훌쩍
화력
클라우드
전염
고독
불렸
돋보이
급락
서른
수다
버섯
방출
실리콘
접근성
차익
보좌관
접시
저술
으니까요
도장
미네
##ivers
##서구
셔츠
미끄
싸이
아니하
##같이
휴게
성장세
수제
1969
##추어
동문
망명
그렸
들어섰
삼진
몰두
포드
전산
초보
노려
인명
볼까
지칭
후계
가져왔
문예
허물
##고사
객실
##테이션
의정
단가
마셨
의의
기리
모른다는
전문점
시카고
112
뜨거
박태
총력
휩쓸
유니폼
이광
흰색
게시판
육박
민족주의
관계없이
프리미어
그쪽
발판
테일
맛보
모방
LCD
조짐
주무
CO
겁니까
어째
솜씨
##son
자란
자진
##동자
가로막
손목
고작
공감대
별개
판타
##려고
치료제
##hy
선장
김형
무겁
원로
말미
##부인
경상북도
깊숙
창구
고양시
고속도
지체
영세
##수기
려던
다이아
##방송
##베스
잠들
택지
참석자
##조선
명사
컨디션
떠들
은근
재테크
마사지
벨기에
어때
##ost
브루
기량
두부
정동
대중교통
헝가리
불빛
로고
##투스
복사
과실
검출
보습
수법
후자
박상
염증
스무
하인
장래
##센티브
감독원
인센티브
다각
##소통
소규모
타선
마운드
세입
##물산
이현
불쾌
표본
편한
##TI
보드
상관없
내재
활짝
지켰
경보
두꺼
마른
##AC
MOU
역학
SUV
달라진
내다봤
프로모션
노르웨이
은데요
어미
결함
주둔
면모
1963
경성
멈춰
황당
처형
져서
마이너스
치과
아마추어
앞당
곤충
##테일
해경
PR
격렬
가해자
선보일
창업자
발령
양해
중국어
UE
후지
말투
아쉬운
이진
성남시
집중력
증후
삼성물산
의사소통
이식
실재
09
is
일러
떡볶이
실린
원한다
##감치
전경
주의자
정전
체감
길러
##찌감치
기숙사
본회의
여겼
홍성
총액
괜히
##블릿
##베리
공룡
임용
몰락
주식회사
시흥
마신
나이트
입대
##경북
##her
##균관
그레
어휘
노화
줄줄
이시
언스
대성
자재
KA
왕비
지극히
해지
마일
일생
줘서
105
만지
##마다
##운전
대문
밥상
##호텔
태권
김준
바이올
잔인
포위
##징금
농어촌
##오카
정몽
##와이
과다
정문
##기구
회상
치안
영등
보컬
성우
방문객
구할
사신
편찬
으라고
##쳐서
##ies
저지른
잊어버
##싸움
문경
성균관
상표
1967
음원
강호
지름
튀어나
이목
여대
주축
했으니
잃어버린
방한
테니스
##노스
##영향
일본어
해피
제압
음식물
##나이티
포토
##기지
요금제
잇달
제네
실상
##다듬
##ical
단서
오디션
가꾸
##eal
원산
유나이티
장로
시행령
퇴진
##태프
가뭄
동결
나뭇
전두
탱크
##oy
후임
화보
여가
티셔츠
저절
우산
바로잡
##연대
교향
주파
징수
마인드
강수
클레
납득
공론
이불
레벨
대동
정했
원망
사관
이석
손꼽
##orm
동상
소아
타수
수비수
각별
내포
저절로
날카로운
##MC
회의실
샌드
유쾌
중소형
금강산
분비
노라
약정
금연
된장
효소
##ert
미학
캐스팅
##협회
수반
쓰인다
변명
동사
차리
박탈
세수
지켜야
##제철
총체
랍니다
큰일
##10
재수
##라이언
메가
움직일
력사
밀착
여보
1200
수평
잔디
전월
설교
상류
항쟁
##매매
##틀랜드
최우수
불쌍
장거리
행해
세로
드문
학급
계통
르네
경인
우드
에프
태블릿
마세요
웬만
DJ
마술
마드리
투구
학사
바치
다닌
예민
신조
창당
한잔
고마워
죽여
파스타
온실가스
소액
약세
부평
난리
레이저
누리꾼
억지로
여우
핵무기
STX
선별
1965
UEFA
선착
스프링
생겨나
고의
vs
훈장
유보
꾸려
정년
노트북
마드리드
십자가
대명
근접
덩어리
경쟁자
사리
점프
교리
설득력
##지대
명명
스타일링
끼치
꼬집
1962
광경
유대인
법관
어린아이
어딘가
용병
전동
발병
##베트
지갑
쏟아져
드래곤
증후군
회생
대교
##누스
##커스
석방
##줄기
조별
##ark
고등학생
재빨리
준수
국도
daily
급하
끄덕였
양주
방울
아버님
TF
경연
행장
다듬
담임
AS
기업가
추방
채취
1940
국한
시끄
텍스
줍니다
신년
뭔지
무제
사이드
07
후진
움직여
개개인
겨울철
연일
##aw
소리쳤
178
불길
##진보
설마
이완
전승
KO
산맥
진해
최저임금
칼럼
준다고
##플러스
뿌려
충고
암호
##뜨린
호조
감찰
불어넣
귀엽
강자
해킹
##포트
통일부
기상청
태우
##orea
나뉜
흘렀
챔피언십
문단
##적으로
붙였
이따
접종
자르
사임
미처
실존
선대
아세
이별
##으므로
일괄
법인세
마셔
##ind
2500
지워
구로
술집
행사장
AT
침투
환호
##구석
##르기
남매
현수
는군
스터
대두
물리학
뜻밖
상점
경희
각도
스테이크
정진
##도르
##발전
하버드
어치
화자
선동
숨진
넘겼
리뷰
명상
연내
강구
1964
손길
효성
##어로
##겨운
작정
##셀러
도래
조문
동전
중형
간신히
이스트
민사
이케
종말
##sh
신문사
쇠고기
배럴
MV
장병
낙관
몰입
걸림
조립
치른
머니
미뤄
거니
##EA
재임
백두
각광
수동
믹스
추운
구이
##라비아
미션
바나
지친
마음껏
포수
위조
##화기
심심
살아온
화산
도미
현존
장례식
청중
미미
남미
연어
버디
##돌이
경부
##데타
##소년
추신
##ace
할리우드
빠질
뚜껑
불상
Sch
##oT
박원순
베리
란다
내다보
쏠리
토양
우월
불펜
프레스
인지도
##도어
##겹살
라구
대피
때려
고찰
ex
당뇨병
##루미
공판
조형
일찍이
이견
교토
클로
질주
손흥
중학생
테크노
마실
울려
이색
##기야
불참
으세요
분수
##부분
##높이
필립
CS
서브
던진
CP
명동
아주머니
절제
가파
경상남도
쿠바
날아가
샤워
삼겹살
주어지
스러움
이룬다
가늠
원자재
손흥민
대요
하이닉스
입각
링크
다스리
##고속도로
침공
관직
장남
히어로
두뇌
캠핑
오키
##피탈
크다
지난번
입수
버거
##인지
니스
기업체
롯데마트
##하루
방과
1946
##셀로나
지킬
풍속
게끔
실명
달걀
##orld
모토
바르셀로나
법학
청나라
문체
##사람
복도
##오리
세계관
일찌감치
박계
##퍼런스
횡단
한식
신다
입문
브레
퍼시
취할
원주민
충당
함양
1966
Bl
스윙
##레나
내륙
pr
루트
유예
축복
대공
냉전
법제
군산
공신
회로
팽팽
폭염
크레
라이벌
승계
능동
색다른
SC
일명
내세워
포스터
소신
니콜
로움
시조
홈플러스
단골
##디움
에르
모듈
사회단체
102
진한
sp
예뻐
이준
일컫
모욕
판교
##진보당
전한
종결
손수
Sc
##RA
순조
쿠데타
##MA
박지원
습득
여정
관내
다저스
히틀러
갈색
IoT
강물
생명체
결과물
노부
##IST
벗어난
지면
후유
타이거
부속
결산
폐하
풀려
공예
전투기
##공정
마냥
ㆍ중
머물러
공구
상시
영재
##사이
재편
##te
저마다
트레
받아들였
##대기
외관
##여행
녹화
무수
##레일리아
1961
통찰
장갑
버터
외상
볼넷
라든가
##그리
스캔
리처
정선
즈음
108
타고
애매
국외
동점
##ah
장편
추신수
옥수수
청렴
장마
회고
해리
더위
지리산
표창
##키퍼
카지
매물
차종
##ick
CN
be
##시스코
한복
##ty
##ts
변호인
도당
tv
울릉
사거리
탈모
사귀
유익
긴밀
입양
도널드
골키퍼
하향
정점
##에스
##파이
악재
핑계
수감
페미
남짓
소상
쇼트
##TO
해수욕장
묘지
민선
시진
신지
휘발
깔려
전장
모양새
현대인
가미
치렀
독창
번영
182
적당히
넓혀
웨스트
벤츠
국제공항
필터
통합진보당
러닝
대구경북
서문
시크
계몽
빠져나가
돌아올
시설물
미분양
스티븐
실물
눈부
##렉션
통계청
##징어
입건
넓히
평안
해온
회색
취했
체코
펼칠
르노
조그만
사이클
막히
초고
125
선교사
수요자
트레이드
일까요
파우
냉동
전두환
센스
총독
파인
상하이
강진
##ug
질렀
음악회
증오
금세
##벤션
선관위
만세
유난히
승려
출처
##금자리
존나
유승민
피난
워킹
증설
무작
가세
##필더
미드필더
트랜
보금자리
동대문
할지라도
대포
##성이
수첩
경감
공모전
소박
우상
##런트
막강
미생
##ock
바이어
연초
다녀왔
안드로이드
망원
합치
자치구
복장
자비
##나들
생전
특구
동성애
관제
기득
크라
남해
##iss
종족
초코
외화
문항
##one
라인업
김창
전시관
뒤쪽
평상
달라질
하트
비춰
클러스터
##브라
원숭이
달라진다
##IT
어이
##모니
비해서
Univers
CG
Ex
패밀리
닷컴
안타까운
##비치
국사
동창
당사
남산
신차
변환
클릭
과반
테이프
기피
질량
드론
오지
견딜
애써
대담
토리
유수
아인
꾸미
접한
중앙은행
소파
왕복
##io
겸손
##드레
전라남도
붙인
내정자
서울특별
명제
세인트
컨벤션
##모습
장터
어업
손잡
올리브
절정
찰스
결실
요동
클렌
음력
로즈
금전
조선인
##플레이션
pro
산물
권익
날려
기미
비비
오스트레일리아
내쉬
궁금증
심층
직권
독려
##체스터
##듀서
실버
걸림돌
오세
자궁
여긴
경영학
프로듀서
무단
경품
사범
##르타
1949
##생명
발송
근절
기저
모자라
원피스
반격
Joh
왼손
당나라
야구장
기념관
가져온
울산시
두께
만물
평면
대본
##퇴근
##하라
국고
빈번
소폭
요령
아테네
여배우
박진
##ement
Press
샴푸
정관
나르
##경제
멋있
비대위
여동생
퇴출
서재
내년도
##테랑
칼리
에버
경지
돼지고기
주저앉
갇혀
##라미
부의
삽입
개미
유선
그러다가
응모
정류
코레
360
민영화
하와이
남다른
다크
묵묵
시일
국지
정보원
차선
아웃도어
통지
##리안
원단
하락세
뒤지
드린
원했
선점
민법
삼성그룹
과태
마차
제작사
전념
슬로건
군민
화석
개량
넘어선
바뀔
킬로미터
논평
사사
##lic
##DA
기꺼
동요
고구마
월간
농지
번쩍
무형
사위
과태료
이겼
이룩
##90
양호
더듬
벗겨
지음
##ach
열망
지질
내전
Man
sh
실로
야심
##지르
퇴임
김윤
드라이브
표방
의대
이끈
##mp
집어넣
분화
연체
파스
칠레
영화배우
절벽
토너
도매
할까요
아비
어머님
막혀
##슈타인
유언
찾아와
벗어날
성매매
두려워하
유관
만두
적금
스코틀랜드
Pl
고심
Ed
송이
귀한
상임위
승자
로맨스
무안
핸드폰
조망
일으킬
##벌이
제자리
##무라
합격자
신용카드
권장
##소시엄
태종
길거리
EBS
잠수함
ES
컨소시엄
미팅
연합군
이산화
타석
타결
간행
희미
싸워
유럽연합
귀중
##크리트
궁전
만찬
증가세
##엑스
정산
왜냐면
강국
데스
교도소
거액
##라노
서울특별시
상고
섹시
##화물
꼬마
브레이크
KCC
시공사
본문
의왕
주상
풍기
쌓이
세속
##마르
##레이터
역세
지휘자
구실
떨리
시한
하청
부지런
명심
시그
늑대
풍력
루수
스며
103
저주
동명
go
루스
111
모발
##하이
비빔
불평
의거
끌어올리
친근
##데이트
아마존
나카
홍삼
지중
돌연
강대
내셔널
그릴
김인
임하
##합니다
Br
유령
무심
표적
##나와
밤새
일화
유저
피스
삼촌
개원
일어서
리처드
기용
오징어
질투
허공
의석
나주
연쇄
폭포
김희
바짝
웨딩
거창
##티스
골자
윤석
##프레
##프란
인맥
##GA
고부
업데이트
##테면
힙합
이창
특례
남북한
##ual
주시
바울
할당
오른다
거슬러
생략
158
성별
동등
아담
##팡이
세례
간혹
회의소
마쓰
콘크리트
##구장
발족
블로
해답
성원
유기농
이윽
잠자리
대리점
미주
정반
만료
북방
습지
##젤레스
##마리
미얀
벚꽃
슈팅
그라운드
퍼시픽
##스틱
풍자
김명
가혹
여느
판타지
##네스코
다이아몬드
##yst
##올랐
기꺼이
포부
##플렉스
고분
본보
##대교
##전력
154
스파이
시멘트
미야
알바
듭니다
##관광
산행
##데요
제국주의
벅스
주파수
시당
느껴진다
특색
이윽고
침착
실사
프랭
바닷가
영동
##북자
아리랑
원동력
약품
강전
요렇게
카지노
봉쇄
적절히
낮춰
주지
##────
둘레
어야지
직결
##BA
극도
에릭
폭격
등재
우체
피지
1900
색채
증폭
115
수영장
중위
##끼리
##디스
급감
ed
이용객
은폐
연주자
수량
##어먹
장자
깃발
하남
177
이방
터뜨렸
특급
중추
이를테면
양평
우라
서열
자취
기습
생활비
포크
미쓰
텃밭
##ㅜㅜ
후계자
가평
어학
비법
멋지
처해
끓여
맨날
가져올
##나타
##동원
전작
카를
승무원
스타디움
마틴
퀴즈
호전
우량
노숙
동조
후유증
국책
무사히
시아
표결
##로리
##지기
조장
신원
유네스코
욕설
트레이닝
##ology
익명
포켓
후반기
##ign
야드
차이점
##즈니
Le
정주
헤르
##태우
정형
존슨
김문
진행할
민자
일조
국감
고비
전대
잡힌
성추
저조
나폴레
쌓인
##벨트
배급
섞여
연기자
빅토
##가족
묻혀
##나리
박인
다물
##벌레
##본부
전일
액체
##ance
보스턴
오리온
기질
Ad
마마
출퇴근
박용
##ult
또래
##ire
##때로
가드
불공정
햇볕
한껏
##정식
납입
AR
올스타
##범죄
경쟁사
주스
보건복
##꿈치
Ph
파급
145
상반
마법사
종속
숭배
단연
익스
본점
##투리
정계
인텔
통역
##스테
따돌
대위
MVP
태조
기술자
##인물
속해
노년
거래량
계파
지평
유포
##rom
베테랑
##상부
우익
보태
오토바이
분주
내뱉
품종
후보자
보궐
려다
##elf
빈도
자정
산재
실증
내려갔
성추행
특사
방사선
시동
보트
눈동자
뉴타운
전례
방역
사회학
시내버스
들러
회식
사촌
##마이
셀프
약국
제동
이뤄지는
나타낸다
##외과
LS
녹차
옥상
종로구
일당
합당
##ike
기념식
효능
추이
세이브
##자유
박해
한라
끝날
직구
섞인
요거
수산물
##ous
##왜란
소품
차츰
##법인
소명
주춤
목동
태극기
나폴레옹
##수리
군포
##병원
##ton
기점
과열
인디언
서초구
임진왜란
신전
판례
베풀
건가요
##ech
##예술
김구
농축
낯설
목회
##훈련
북아
액세
##상스
은행장
LI
낙하
헤지
한중
올라왔
느니
열흘
호재
타이밍
공짜
175
강력히
시킴
사생활
꺼냈
해역
리아
지회
드러낸
##ide
##러미
스케이팅
수료
부흥
설레
어마
동산
합니까
창간
교복
잠자
격리
대역
필라
흔한
##프란시스코
나뉜다
찬반
열광
xx
정우
팽창
과천
오름
드러난다
엄지
Tr
다시금
##무게
##센스
샌프란시스코
##의사
맥스
의료진
컬렉션
밀어붙
나눴
코믹
직관
##ish
세분
수월
호박
시켜서
결집
이면
Gr
해냈
##어스
몸무게
스미스
##베이스
##클럽
명나라
야말로
벌레
규격
##슬리
by
따랐
앞뒤
##보험
대검
PO
##리칸
송금
157
사옥
재앙
청계
##권력
맞붙
인위
1956
체조
화랑
들려왔
##ern
##찌개
개신
모였
육지
##LED
미인
살펴볼
저거
관문
탐험
단기간
세액
##앤젤레스
내세운
주니어
##김없이
로스앤젤레스
이장
가나
세븐
노골
산업은행
2030
줄어드
##재단
1958
금고
아모
레알
둔다
조현
굴러
자택
순회
학점
십니다
승마
가이드라인
김한
심포
다정
##무실
살아갈
동인
##ove
올라갈
165
성동
135
공평
하사
캄보
조원
이뤄지고
재래
걸어서
옮김
추리
##입니다
르네상스
호감
난방
대표단
포상
ETF
여행사
걸린다
리바
사업가
면서도
공대
SW
원년
문학상
지으며
155
무궁
죽였
원격
철폐
허구
##oul
부의장
허무
사학
123
진통
내려다보
시국
영수
거둘
살균
김유
보답
워크숍
국기
##페이
세탁기
조경
고아
귀환
도자기
##렁이
##생산
직위
웨어
유상
##버려
북극
##거지
보훈
소이
450
이리저리
비준
알루미
넘긴
재판관
떠오른
주입
소고기
텐트
정경
유공
##말라
York
해선
커서
무성
승차
보건복지부
PB
전성기
가야
도무지
John
##LL
우뚝
사당
때때로
알아차
수요일
코어
이세
##위치
병합
##old
줄줄이
University
마음속
아부
푸짐
동메달
살아나
##월드
전한다
웹툰
형평
이놈
거라
시력
부적절
맞대결
쌍둥이
빨래
##대부
벽화
산타
여도
수중
다치
리우
나리
구조물
시시
##orn
아크
마력
총무
당과
태자
진작
김천
방북
정장
계명
항암
야지
##박스
예매
스노
레지
버릇
순례
그쵸
자위
용납
LNG
##날레
박재
은메달
김영삼
중진
CBS
과언
with
법규
았었
저지르
대권
곡물
영화관
하도급
태백
##국적
신청서
취직
운동가
측은
골고
고안
각본
기동
시진핑
미얀마
남아공
본명
신음
모던
버락
일깨
컴백
폐업
1947
무능
유격
몬스터
세단
캐주얼
캄보디아
하동
태세
##여겨
출하
220
##박이
과징금
개인전
끊임없
##십자
달달
104
장부
##유예
컨셉
팔레스
둥지
아바
왕후
코르
대령
날렸
띈다
1953
깨달음
애기
소방서
악취
머무르
세심
눈높이
희귀
복권
경신
쫓아
162
개발자
156
박병
도주
그물
106
외신
튀김
권하
107
각계
추기
공소
트래
광대
도피
품격
내보내
환기
영조
반하
여진
스케줄
니깐
무거
##퍼니
알루미늄
항로
VR
파키스탄
재차
##출산
어째서
간과
좌익
스탈
키울
코코
줄였
잔액
기부금
게스트
눈여겨
웃기
중력
109
ㅠㅠㅠㅠㅠ
##축구
스폰
불명
불타
쓸쓸
아토
갈래
시련
접전
상급
보라
거침
동탄
##ann
엿보
지나갔
가급
프렌
들여다
정반대
발발
급한
##오롱
수거
레코드
목요일
어스
해발
겹치
늘렸
알맞
눈썹
차입
아유
유정
CF
문신
서인
헤매
##조사
전향
##메이
정정
루타
미달
향토
연못
겹쳐
강당
규탄
라든지
반가
you
외형
조선소
공안
반문
상선
본토
이대호
저리
적힌
##곡동
##페이스
늘어
##시대
다다
복종
240
담합
공청
습격
배기
개막전
대림
키웠
Car
세율
사외
김두
로선
진이
요코
로워
달빛
1959
프로그래
골퍼
곧장
1910
내세웠
영지
##면적
자각
보병
피겨
발자국
의병
바나나
거듭나
본연
팔레스타인
공과
안티
아무렇
엘리자
흉내
프랑크
명함
유무
##허가
생산자
작사
구슬
매직
1955
토종
꼼짝
증자
1800
이브
막연
골고루
카리스
일리
쾌락
##내셔널
##란트
속초
한옥
스태프
탈북자
관통
다녀오
출발점
균형발전
항일
당국자
나날
훔쳐
161
인터내셔널
놀이터
교직원
보류
임종
164
자생
싱크
미묘
상단
결핍
펼친
번갈
시책
틈새
건축가
##나드
터뜨리
들어설
수없이
강성
대책위
알뜰
다운로드
누이
##바꿈
북서
노동력
Wh
맨체스터
저쪽
##TS
##그레
군중
늘릴
코오롱
테마파크
고모
보건소
유능
중원
##OR
세일즈
1919
최장
목재
한다며
가급적
##ris
천체
휘발유
신영
151
패권
감행
##현실
용의자
원서
제대
##주택
간다는
대용
미시
늘어놓
윤곽
결여
배열
비관
농수
결선
바늘
정례
보단
##치아
카타르
##질러
정류장
담화
급속히
실세
추종
식이
구비
식감
경향신문
168
정사
흘러가
시위대
성전
건설업
절박
체납
챌린
단풍
성모
여력
매스
외무
##처분
컴퍼니
들으
저택
이의
반납
흘렸
시발
망치
오산
방대
파르
입금
공채
추기경
고액
기체
장애물
주당
따름
구인
폭락
쓰였
ac
존속
##ife
고로
##시피
멸종
##신저
시뮬
스티브
연구회
정제
김밥
동반자
##가치
##정동
두피
##퀘어
##운용
##주군
앵커
콜롬
##수지
의아
아메리칸
하드웨어
##로워
불화
찬양
디즈니
비참
친한
신주
더욱더
1954
##클리
##und
##하마
##ph
152
총생산
비엔
유배
배움
담장
전문의
울타리
No
느리
택하
자선
이루어질
만난다
제조사
비웃
레몬
순찰
수염
끌어내
농단
슬퍼
칼로리
무공
##RI
배부
메카
페르시아
kt
코끼리
끝났
얼룩
손질
쇠퇴
음악가
움직였
접대
##ome
##ive
여행객
마녀
마음먹
목적지
자이언
유희
##짜기
인선
권총
##파리
공법
##리학
일어난다
##갈비
대리인
변한
기수
종자
발산
대승
레스
곤두
##깨비
개그맨
윈도우
타락
피크
쿠션
김원
세라
티베트
특기
부응
176
홀딩
조업
호칭
치마
취재진
BC
163
수도원
환급
영하
한국전력
연중
전라도
참치
쓸모
조개
모셔
일세
추후
돌풍
부끄럽
미생물
128
야스
초조
139
급기야
제왕
##총액
견고
한성
리오
에디
##ati
##DS
1957
상거래
찾아갔
깊숙이
사법부
든가
수식
허벅
질의
상부
거지
개신교
감격
공명
아쿠
매사
카리스마
친숙
시가총액
파울
카카오톡
숨겨진
함량
머신
충청남도
추대
숙이
벽돌
##시스트
##뉴얼
물리치
서귀
외고
베스트셀러
친분
해준다
내버려
##자유구역
태안
##베리아
올라온
##able
##ier
원안
##수원
##드름
정적
##들인
쓸데
엄중
##tr
오른손
거시
활발히
호의
사육
개교
면역력
묵묵히
바이올린
피력
신진
경제자유구역
비아
어느덧
왕성
요란
사표
김혜
떠돌
속삭
탈바꿈
슬라이
계셨
봉건
공표
순차
한상
고령화
이재용
사절
펼친다
##니스탄
자니
하루하루
이승엽
##ystem
사치
기울였
쪼개
단과
조영
예보
오디오
그놈
수출입
도정
틀린
엿볼
농약
##프스
흩어져
손톱
서남
개구리
다케
맞물려
샌드위치
여수시
얼어붙
예년
애쓰
113
##ath
세울
##뜨려
당면
##네마
LPGA
초밥
반경
슬프
##어냈
##어야
##공단
1600
로열
리비아
타깃
PS
부결
용감
원만
틀림없이
어둡
급진
en
은은
결말
종편
##코스
간첩
했잖아
유서
EC
호흡기
선팔
등장인물
##살렘
AC
물자
갱신
촉발
교단
드릴게요
코디
##문화재
자손
약탈
##루살렘
됐으나
대우건설
유가증권
##다녔
##악산
153
환산
시종
창의력
잣대
잇따르
스캔들
유역
찌푸
어쩐
대나무
세입자
##les
접할
성직자
장시간
##마켓
남측
Or
무명
에드워드
북경
음향
##라이나
힘쓰
Comm
서귀포
청량
뒤덮
##무늬
121
##━━━━
박경
##세자
스피커
치료법
시어머니
다방
다국적
고함
마그
안도
밀가루
표상
내려와
운임
레닌
##ations
터졌
고품
부담금
마니아
EP
수용자
소양
##아나
수표
Intern
요정
화사
부위원장
리치
반감
안면
여태
GB
웅진
드라이버
외래
악용
경마
저해
##사키
입상
상회
소진
메이커
토마스
펼쳐진
공지
스폰서
약관
탁자
아이디
해병대
##연맹
증액
책임감
##AP
##로디
싸웠
계발
##사전
잊혀
모음
DS
뮌헨
깨끗이
me
1952
세워진
제갈
구만
두렵
포스팅
BBC
##포터
수녀
심혈
br
항소심
127
모기
##MS
운수
메트로
쏟아졌
단군
속옷
잭슨
##me
황태
##of
중장
깨우
지휘관
근간
생겨났
흘려
타고난
들려주
##라이트
존재감
돌려주
양질
아우르
안목
한발
강인
진열
파이프
##sp
는커녕
양대
144
부두
장담
카스
##ollow
어긋나
비주얼
판문
재주
117
상봉
행적
데이터베이스
기일
총기
바리
##ite
거느리
경희대
형법
##게임
떨어뜨리
이나마
척도
매뉴얼
외교관
유재
피드
기침
들어와서
파헤
정중
주공
영산
Comp
바빠
매콤
홀딩스
장원
이송
돌아서
불출
틀리
수자원
##턴트
끼워
##토스
액세서리
현미
봐라
##러기
체전
위헌
추론
적잖
덧붙여
##anc
택했
예루살렘
망가
강간
자산운용
페리
집행부
아리스
연탄
ha
도어
##구멍
선착순
갑니다
몸짓
쉬워
##ition
##답니다
합산
똑바로
저출산
오리지
더더
셰프
하얗
루터
지주회사
번식
가부
해독
자책점
장안
인플
흡사
보호법
황후
즉석
파손
비누
말미암
친밀
##글라스
드려
녹지
반론
최영
한은
Co
달아나
었었
AD
보이스
북동
체온
상응
Pol
지탱
다중
대꾸
세리
몰렸
스톤
카레
엎드
미혼
쓰인
존엄
냉각
변모
##키스
tvN
수박
##쿠스
성지
두드리
149
통사
역점
여관
관철
되새
직책
아연
터진
토니
저렇
박쥐
반항
전시장
동반성
남경
호스
여행자
관련자
허벅지
공청회
종가
갯벌
마진
##AE
급변
빌라
당근
어려서
셀카
패스트
##전지
트리플
어울려
예견
##노이
대법원장
##int
##세기
##메리카
절로
미성
신작
비만
꾀하
트러
상이
NG
성범죄
공무
주어진다
합시다
알레르기
들판
##차림
국영
##시티
사우디
듬뿍
##숭아
141
World
포용
##언스
검열
둥근
자민
센트럴
숙종
발매되
##학규
색소
##투자
서너
채권자
선보여
##지도
헤아
제각
##다나
##하늘
악영향
남서
축사
여럿
이양
죽인
현수막
##바탕
사지
스톱
서두르
웰빙
로맨틱
무신
성벽
싫어
##기름
충주
채무자
치켜
서강
지중해
작물
자랐
도보
염소
기종
##슬림
정재
죄인
오키나와
공수
이이
벌리
보성
이즈
1300
드럼
소홀히
##나가
당진
숙명
방송인
##ank
하룻
묘한
기색
임차인
118
징후
생소
wh
나열
성급
그제야
지독
필사
##튿날
일식
자수
1939
##일드
172
후원금
심부
##저것
맹세
만끽
의논
광교
다녀온
잔류
이것저것
은밀
122
##크림
시킨다는
뿌듯
쓰러지
일쑤
강북
이어받
민국
통신망
##티지
응하
일삼
이튿날
대덕
거미
1941
세밀
광해
여간
인플레이션
차체
##평균
모릅니다
영사
광저우
밝힐
JT
##남동
그래프
마땅히
외계
##시즘
불사
위태
내기
##기부
Ac
달려들
##린다는
회사채
무슬림
물러났
스릴
플로리
권단
비평가
소동
동남아시아
범죄자
계수
취업자
서운
실크
클렌징
변론
찌르
보낸다
도라
##트랙
천문학
악수
##어마
속이
조수
우동
온전히
##희정
##erv
끌어안
모닝
유병
171
더운
염원
##ax
AM
구형
거쳐야
대의원
##거래위
136
공정거래위
묶여
키운
Re
저질렀
변혁
바우
전단
수군
##순환
우체국
조처
한양대
송파구
박주영
조종사
첼시
조롱
양수
태워
국유
##팩트
개막식
코칭
적폐
일차
안보리
회복세
하필
도루
##워했
극한
자릿
토토
우파
거쳤
재심
흡입
견뎌
신곡
앞쪽
##ID
사채
이제야
리터
##나르
수레
불어
우와
다니엘
166
괴롭히
반장
##무소
체내
146
디아
미친다
이은
##IN
대마
권영
귀농
##con
후쿠시마
Soc
##카와
단단히
해낼
가처분
산수
판문점
얘길
##리에
건넸
맛볼
지녔
##원지
리콜
메신저
동학
SF
##구치
##ash
소식통
벌어질
230
줄지
넓이
##내기
근심
복선
플라톤
돌봄
서비스업
견지
벌일
어마어마
착취
##고래
##사상
이호
파고들
거둬
방사능
울렸
De
경색
숨지
가닥
공용
뮤지션
점진
송전
고운
원산지
다이어터
재물
스퀘어
##ase
원한
존스
##ree
낱말
인출
##퉁이
문턱
상습
유화
137
##보내
버블
##기사
심야
손익
효자
블라디
화요일
성희
모세
##리히
오라
##승환
서산
줘요
임박
##che
전전
불러일으키
베드
MP
구부
##iti
물려받
수만
몰려들
가락
이점
##교도
입소문
##들였
중성
판서
그랑
감리
강했
구동
처하
위쪽
충실히
대관
용돈
입안
온전
기관장
서경
스탈린
호가
모로
생체
##여대
안토
조이
포천
하마
평상시
초라
그리움
사우디아
오너
매경
하룻밤
워치
학파
합창단
148
쿠키
##산성
PE
##릴라
##수아
중얼거렸
##하니
양양
평정
ar
샘플
쉼터
일보
한단
지지층
사업단
이규
지쳐
쓰러져
이라든지
사죄
연임
찬사
입주자
칼슘
치중
아프가
보상금
휘말
##ound
가든
##리그
##마을
장차
##무니
호위
불문
단결
결의안
아이언
무난
##금속
안락
독성
산화
엔지니어링
나흘
갖가지
1944
덩치
페루
116
양복
집행유예
기력
상법
##up
사각지대
편향
김우
모노
133
망원경
잉여
He
노비
이민자
라마
톡톡히
포도주
열람
장애인
선뜻
구자
붙들
청각
소란
건너가
동래
남양주
흔하
번개
정차
아팠
올린다
볼트
카트
계획서
167
가늘
제작자
모처럼
##암동
132
중고차
두어
##방식
마누
마오
##올라
리라는
플래시
체육회
심플
각인
##스틴
내려왔
OLED
침실
콘스탄
성산
대국민
다뤄
아프가니스탄
미르
술부
메탈
교보
영예
숙성
무너져
양면
스와
##매도
##are
브로드
##은색
바꿔야
남아프리카
아랑
휘두르
평창동
메이지
헤어지
사용량
광물
원회
풍선
##enti
돌아섰
##미디어
무자
##enc
##다이
무진
엄정
였음
재촉
지나간
사용자
##HD
우루
사우디아라비아
이화여대
시연
스페이스
토착
##장면
다발
오리지널
##과이
자작
##케인
우승자
원심
못한다는
용인시
환수
자루
휴전
승률
손학규
후세
아무개
급제
군청
기뻐하
위계
벌인다
악몽
1936
소변
##통일
유공자
말없이
무실
육수
당혹
수정안
소독
프로이트
휴게소
직속
불려
내시
174
도왔
##패드
성장률
노원
알렉산드
쳐들
방황
의구
수컷
147
연정
그러다
상설
발동
사우스
##크라테스
자처
선호도
##기술
메커
다룰
위촉
##지오
1951
수백만
거센
보호자
휴직
보선
하우
레이더
IBM
운영비
124
노란색
혈당
생명력
각질
##러웠
배드
여단
김은
움켜
이쁘
질타
까마
노려보
##야수
미련
에티
138
126
추궁
털어
##숨에
단숨에
TP
바스
##망이
맥도
꼭대기
##삼성
아래쪽
정현
두꺼운
##데기
부호
이강
거들
##ae
스쳐
이관
수익금
신안
조계
일회
##노총
암컷
1937
미쳐
청동
##meric
씨름
탄산
아이콘
단추
매몰
보직
초연
맞췄
143
외로움
유류
diet
동물원
바닷물
안무
함락
##는데
압수
사탕
무분
내려앉
##타임
김남
적법
##ron
꺼리
버드
환하
먹여
메커니즘
##쿠버
막바지
##ink
인분
사슴
정찰
도망치
교내
담백
도우미
여행지
재위
##승부
모조리
Col
까진
판도
요트
##act
내몰
착륙
##버섯
독주
지치
어조
여겨진다
GE
내린다
특보
잡아먹
리라고
따른다
보입니다
거머
후쿠오카
##자락
차명
NS
##itt
차마
실업자
수납
더더욱
##가짐
울진
장대
경이
청하
스테이지
##버거
익혀
토목
##ake
최상위
앞섰
미모
관절염
퇴장
##ys
규율
지금껏
as
수성구
##창기
라운
포격
##장구
볼까요
외우
청도
출혈
요지
팔려
교구
매달려
데려가
의구심
이건희
아이러
개수
드래프트
선구
건대
이라든가
발표회
법상
사역
##ner
##십니까
동거
탈피
깨지
최진
Gre
전염병
하하하
친해
입주민
성금
폴리스
마카
약사
자릿수
소생
ㆍ군
##클린
세션
##amp
올라와
끌어들이
방화
##의정
여드름
안중
장보
모티브
##갑니다
유태
대열
선풍
##소스
플로리다
의성
경산
꼽혔
다급
남극
요가
사고방식
여타
시호
판소리
##제국
배양
새겨진
항성
그지
들으며
브래
탐욕
골짜기
중량
TO
에세이
지방세
##악단
제물
싸울
##젠테이션
프랑스어
142
호황
원본
침수
##TC
무당
서북
돌아간
대의
챌린지
공보
가르쳤
1400
진흙
즐겼
늦추
성도
365
공황
극우
DV
코엑스
##az
가이
지부장
증서
##현동
##나갔
섬기
##야구
테라
태아
방패
한시
PP
가명
Me
제게
미수
끝없이
출품
TH
커리
유모
살아왔
파행
전처
Par
도깨비
양말
장년
팔렸
낙후
##ater
해남
중증
소개서
PGA
나들
국무부
토막
탄도
벌떡
고위급
분권
들어선다
왔으며
##아시아
증기
맞은
미스트
조인
1938
이청
무방
반포
##부진
정치가
사계
충무
모비스
Res
줄기세포
명실
어김없이
김홍
일간지
치를
발부
기술원
배낭
##블리
##바겐
요하
피츠
##HO
그려져
##체어
나들목
스틱
커져
인민군
의리
이긴
내심
교차로
지날
차갑
##스트리트
굶주
누렸
임산부
시뮬레이션
씁쓸
박찬호
구한
졸라
성화
재질
알라
망설이
암흑
그랜
자구
##카이
자본금
경상도
숨졌
허허
현대제철
비방
화순
사령탑
해저
지방분
황사
Be
휠체어
진다는
게르
진격
그려진
거스
이질
연면적
직영
리바운드
초창기
춘추
스코어
비장
동호회
##ool
BS
저번
중상
넘어갔
##터스
만져
생강
맞은편
방정식
##셔리
얼리
코카
리어
럭셔리
공허
슈퍼마켓
저감
끈질
진수
##자재
##쿠라
##보이
센티
간다고
디테일
소사
공교육
라우
발렌
자락
내려온
ad
판로
영종
서해안
머금
전라북도
다우
리베
본회
산불
식별
아세안
정가
살펴본
논하
봉기
수축
가솔
##fic
매끄
통틀
메타
##ll
자연스레
춤추
털어놨
Americ
##사르
최재
평판
주된
소행
원점
비박
기밀
졌으며
##iew
과감히
사주
SO
로우
한몫
하차
이재명
마주치
트랜스
Gl
##부상
1942
신뢰도
보르
거룩
입히
##대장
화성시
DC
콤플렉스
전망대
위함
김세
##의회
##ress
성명서
금산
멍청
경직
입당
영등포
태그
영위
연전
부산대
##식물
전세금
사라질
악순환
여운
사무국
##ime
뾰족
##다르
국문
골목길
니트
복숭아
활동가
리가
폭스바겐
평형
시합
공사비
##레스테
콜로
퍼스트
##미안
##혁명
융자
농경
줄거리
균열
챙겼
follow
##루엔
멀쩡
ELS
AFC
이뤄져야
129
김학
##금융
1933
분식
고흥
우두
딱히
일류
##AA
상큼
##슬링
청담
중남
##에트
관례
반값
210
난감
un
스트라
가두
##임자
##ans
궁궐
수퍼
거장
성품
드로
국공
수양
충만
환매
##ild
##카이도
혼돈
자연히
출원
종신
카자
등극
토벌
280
경복
들어야
신촌
KS
Fran
##cl
욕실
서대문
엉망
힐러리
도망가
##부모
어우러진
비료
두세
유로존
몰라요
외롭
카테
기획사
영남대
##그러
갈아입
끄덕이
구석구석
엘리자베스
기이
도산
쌍방
일컬
빅뱅
요미
##갱이
부류
늘어난다
세르비아
나타낸
바비
와야
##덱스
지기
부통령
##맞이
모여서
온난
KE
##ower
대표자
750
재화
막말
빛깔
알아내
영덕
최정
삼가
로스쿨
애널
다는데
##ric
##베이션
챙긴
구급
변질
생식
도사
미숙
잡혔
##row
제지
한없이
신명
혹독
모공
여겨졌
플루
냉면
하단
지청
우크라
올라간다
홈경기
169
PM
케네
아이고
꼬박
이국
성기
영도
싱싱
포즈
무분별
예감
소관
푸틴
의례
관용
MD
상국
넥슨
문양
경기력
영천
##레스테롤
클리닉
무서워
##원군
방언
양지
강철
오타
는군요
다자
실수요
대면
정연
반짝이
교제
콜레스테롤
세계인
서거
거인
김관
강판
방탄
랄까
##커트
134
조속히
삼척
외과
불고기
330
김효
대지진
승소
통째
##나항공
빨간색
베토
금기
독립성
##미르
2022
증강
집약
하소연
대내
사라진다
당당히
낙선
예술인
3500
해적
VIP
무이
아시아나항공
본지
고른
##리나
은근히
##무진
해인
쇼크
##상수
짬뽕
커진다
유라
이바지
JTBC
누비
ㆍ미
답사
아날
##습기
무너졌
형벌
불허
치부
오션
까다로운
빼돌
대군
개업
치러진
음란
쳐다
IOC
수용소
담담
##ox
UAE
콜롬비아
시마
미나
르노삼성
페널
1932
함경
교육비
기쁜
전보
##불리
손잡이
운하
부럽
이한
진공
주임
천도
병실
트윈
당도
속출
죽일
약식
사나
카운티
전집
편집자
김미
##yn
경제학자
만장
수건
휘둘
##케이
젊음
신민
어용
조광
는데도
DMZ
스러울
무더기
##연구원
볼륨
##ㅋㅋㅋㅋㅋㅋㅋㅋ
만연
당위
가로수
전경련
전화기
선글라스
그죠
사춘
니체
살린
찬스
##ME
궁중
디오
발현
떠올렸
남대
비우
짜릿
받들
작위
퍼부
갈망
라이온
술잔
##제리
나아갈
##ON
바라볼
MBA
Ind
cl
팔꿈치
이단
주범
성문
꼴찌
복지부
서부터
망각
어기
올라간
##ade
나스
##tiv
270
교량
구약
강령
성대
재일
실종자
피아니스트
겨루
옵니다
이효
도울
1929
##안전
아리스토
상소
여주인
호프
추출물
마흔
유년
어워드
전해진다
워커
You
베토벤
월스트리트
반입
오카
버림
나미
부르주
루시
조연
관악
저명
말려
설령
##ai
##베르트
뭉치
스티커
부가가치
##AN
로드맵
und
지구촌
동두
##포츠
##푸스
표절
무더위
속내
일부분
미녀
유니버
Har
잔잔
조아
대명사
투스
극동
##뜨릴
소시
이소
후문
pl
일감
호두
취항
경합
구직자
뽐내
슬쩍
일렉
스테이트
##BM
팀원
잠겨
상여
1943
물러서
성희롱
초상화
풍토
봉화
체면
외환은행
연행
낙하산
건너편
기념일
증식
173
마나
독일어
아오
관상
내성
바랐
기다릴
국보
엔트리
##도리
가결
케네디
각서
포진
건만
김부
전속
Korea
햄버거
서리
음주운전
관리법
순종
가솔린
진행자
트로피
##제이
불거진
유산균
생겨난
타일
월등
포항시
심문
대타
투신
마포구
박세
첨부
칸트
회귀
링컨
꼼수
밤중
심신
이노베이션
International
절단
로라
청자
커튼
어땠
아우디
치가
투성이
거처
##막이
니즈
레일
장타
무작정
부딪치
능가
송영
확진
##tit
자연환경
그친
맡겼
FM
이산가족
로렌
후방
자의
랜드마크
나물
부녀
들려오
아토피
될까요
##ere
1935
대전시
달러화
서한
내비쳤
이빨
오크
미지수
구독
테크놀
##rans
퇴직금
교묘
양현
멘토링
##너무
의료비
인해서
슬림
유고
난이도
보너스
##결승
교포
출고
##천동
흉기
제인
차등
더군다나
하부
##ina
연희
하여튼
철새
신생아
031
행방
퍼졌
##아르
정대
와이파이
구르
배임
동그
불쑥
##이나
320
그칠
종래
복판
한파
헤라
##텍스
뒤섞
가칭
##공원
가위
##슬라
플라이
라틴어
방수
토요
미라
탁구
기저귀
깨어나
능선
싱어
논증
알렉산더
착하
두터
연구실
##산동
고루
정해져
메우
아깝
김석
급급
캐시
진나라
팔로우
재검
망하
화법
대졸
게으
살릴
해내
밀레
국화
소각
##휴일
알아볼
##루엔자
환불
지폐
사춘기
목걸이
동독
GT
##백화점
점거
조선업
기류
계집
중앙일보
초원
급성장
131
몸통
올라섰
달할
임대차
ㆍ정
집사
부담감
종양
##로이
All
신정
모터쇼
달라붙
격파
베개
어우러져
애착
무색
숙련
##리시
##사랑
##아티아
##십시오
강기
담아
금성
구했
포화
회차
혼잡
정준
어민
##마킹
황교
가전제품
항아리
견학
베타
##래프트
경제성장
달려갔
선천
닥치
화질
이공
260
릴레이
취득세
##서스
경량
간절히
마포
벤치마킹
인플루엔자
최경환
컨설턴트
크로아티아
특산물
드레
더러운
소비에트
타이완
놓이
잡스
초안
곱창
나인
준우
주선
##iel
위스키
강서구
이오
반가운
당권
지만은
불복
반공
이희
공관
유흥
경전철
좁혀
인양
##ution
발리
영양소
진하
남도
입가
조합장
용사
얽힌
절도
거래일
민간인
서독
자행
무실점
불씨
여객선
배워야
언뜻
두근
찔러
##실록
인질
부추기
관리비
열등
수락
가열
여호
우러
줄게
앞바다
천명
레시피
못한다면
초빙
고뇌
칼라
김제
##카스
RO
이계
조르
리본
미역
##전기
##out
실책
어두워
소인
##사태
제작비
뒤흔
무어
마취
교향곡
TE
분홍
철도역
엔딩
따를
생사
굴복
직종
투여
경청
배타
암기
아사히
사슬
바오
선체
선인
강박
삼성증권
박기
힘차
에센스
제후
스트리트
빗물
종북
1914
그립
콩나물
##서야
기관지
맛나
이선
부딪히
성악
김규
가와
##pl
각성
석면
턱없이
내줬
서식지
쌓았
군사력
놀랄
한심
대란
서신
연신
소수자
루마
self
뒷면
다가온
it
##퇴직
터전
KD
매달리
잔여
감세
젤리
##붙이
공손
203
##부림
압구
두드러지
누락
des
열중
선가
은유
빌미
퇴원
##티노
시드니
역도
나와야
되돌려
NE
bl
계약금
끌려가
라고요
빅토리아
면치
순진
변증
큐브
열대
원두
복식
신청자
장모
리포트
막부
바그
자서
전반기
연회
참배
천정
트러블
플랫폼
간결
동백
아모레
파병
시즈
##선거
re
지하수
간략
몰린
##ile
1100
증명서
저격
바삭
박준
최태
##거진
하긴
쫄깃
양사
셔도
##수산부
출입구
중생
효용
##르드
##우치
데스크
팬츠
리프
의기
구미시
거니와
촉각
##가정
CNN
원치
향유
울릉도
본국
정액
구애
오스만
끓이
라이언
##텔레스
dog
##중국
아이러니
스트라이
커진
유리창
막힌
처우
쓰러
멜로디
이문
패전
품위
해외여행
버지
컨텐츠
둥글
부시장
아이패드
수심
인방
착오
새로이
로프
순방
그쳐
##NC
1925
장만
유방암
##정사
내실
공휴일
혼동
북적
적십자
봅시다
브라우
비시
가면
구운
벽면
흐트
평가전
달인
BB
##엘라
성리학
탈환
껴안
번거
소치
1924
롯데월드
가액
홍익
출세
갈릴
위배
수돗
at
단의
아쉬웠
단련
아리스토텔레스
주어졌
해물
너무너무
과학부
몸집
우즈베
벌어들
이드
메이드
받침
알선
##필드
방콕
막막
밸런스
보령
ㆍ이
경작
알릴
유영
전통문화
로이
침범
1934
영성
반대편
풍미
행정관
학창
전광
중화민국
펌프
어이없
약혼
My
더럽
매듭
보행자
ID
my
부제
단체전
##애나
냄비
홍명
##라기
테라스
실험실
당첨자
소방관
다원
동음
스위치
트루
의존도
고마운
##드라마
휴업
방사성
탤런트
고충
유적지
재상
미용실
탐지
모른다고
소송법
토머스
굳건
MM
기다려야
화백
결핵
간소
1928
아인슈타인
##아보
꿰뚫
눈부신
쓸데없
##내려
무승부
김문수
자백
높인
평온
##ublic
체하
한약
야단
like
아드
애널리스트
웅장
폭우
재판장
정인
부끄러운
밀어내
##행사
쫓기
요리사
연주회
독감
비위
##아먹
램프
귀속
속담
승패
황교안
노래방
사뭇
일주
야쿠
예정자
아날로그
Mon
발전기
사르
잊어버리
1931
허리케인
위례
어필
에도
산문
죄책
선로
On
창녕
부상자
칭호
모은다
불출마
나옵니다
족발
반기문
식욕
민관
##꼬리
필지
천막
일탈
1918
그러면은
드나들
불법행위
구마
##천리
무너진
네오
##co
##evel
드루
반죽
걸치
벼랑
모여들
다가올
브로커
재혼
파이낸
현저
돌출
봉지
##속기
흘러나오
##세우
##iam
데모
독일군
야만
무라
et
오찬
중앙당
동대
혜성
##CO
다산
##ale
세조
주지사
성북
시베리아
양손
태생
곡식
저금리
분사
아니요
마음가짐
카피
##코프
옥션
카자흐
속상
##우트
양재
정치학
초음
안치
심했
접어
어지럽
1905
DVD
연꽃
노자
##피어
##ㅋㅋㅋ
박동
과격
멸치
볶음밥
완주
우측
하프
실수요자
폐해
결사
보일러
후작
자초
##모비스
해양수산부
영수증
과외
로빈
심경
고질
연하
마블
빵집
면도
이뤄져
날카롭
해산물
무모
화분
청송
터무니
리틀
막론
따라잡
경제력
장어
그랑프리
시니어
앙상
##둘기
어쩌다
더해
태연
성종
싸늘
박혀
복직
희극
준결승
세관
잔혹
명백히
##지엄
비켜
항생
치사
쓰다듬
러시
알아듣
강등
처사
현대모비스
요컨대
버그
모친
심포지엄
월평균
네네네
베일
후대
DB
할게요
통학
##시계
##닐라
부쩍
instaf
별장
지닌다
##ise
시모
정돈
현대건설
세습
손색
##인다는
교인
산다는
##파이어
모터스
안식
맞벌이
해부
긴축
군정
구출
차근
청취자
##레마
실례
음음
손발
##ren
가파른
워너
파출
2021
윤상
도끼
백두산
복부
##버렸
치른다
박희
고추장
다고요
모건
허술
맞선
스킬
고영
매혹
만회
케이블카
##쿠르
박모
나뭇가지
시군
안전사고
종식
특별시
영농
건국대
그리스도교
자산관리
바뀐다
낙지
패드
안양시
뇌졸
바흐
연차
달해
제반
울림
핀테크
아폴
La
알고
##eth
분별
매화
선우
원더
웍스
이범
숱한
단종
##ull
사교
찬란
선봉
여중
잔소리
희곡
미약
##김치
공범
멀티미디어
선율
사다리
##gh
김해시
서강대
근사
아껴
범하
건드리
느린
신형
양동
에이전
한결같이
석가
수사관
엇갈리
상세히
화끈
스트레
칭하
Coun
돌이켜
장신
자이언츠
##용수
밀러
애호
ㆍ고
순교
강대국
연장선
강타
으뜸
토론토
느라고
윤기
배심
옥스
줄어든다
짓밟
우라늄
제니
돌려받
이따금
독수리
동맥
기하학
SOC
거주자
난관
연준
주립
구매자
중남미
솟아
##실히
유착
상쾌
뒤편
##대사
##버린
끝낸
장이
Ge
1927
빌보드
사수
뷔페
천상
살포
무지개
참신
소크라테스
씨티
기본법
알고리즘
다문화
양궁
쏘나타
##이의
##뿌리
피라미
피드백
베이커
오월
한문
여하
청바지
나트
소소
일축
1926
##경찰
은평
청결
##더기
아이파크
instafood
식초
로션
제비
실무자
증축
공교
손꼽히
실기
##납니다
영국인
예리
옷차림
수돗물
##캐피탈
숟가락
흑백
근래
KAIST
열렬
외침
어떤가
비빔밥
응급실
무림
책자
라떼
완성도
실마리
지킴
계약직
##마음
##erm
세안
산책로
불거지
조사단
성적표
입성
황해
머뭇
박태환
뭉쳐
저것
상수도
브이
어버
안희정
현물
획일
귀하
기만
관청
대청
들린다
틀렸
단언
터득
선상
필기
끼어들
##더니즘
넘어갈
집요
##킨스
모차
##맞춤
##로그램
겸비
베네치아
원자로
ph
낙엽
다가와
##ins
우여
화답
수하
1907
양당
청양
표했
신대
문화원
브라이언
##영수
신의
스톡
As
##ix
##미아
성황
인척
##베르크
도교
발광
장외
편익
##기금
##enn
##국장
발해
동이
통용
고법
오미
고마움
##uk
면밀히
ML
나지
편히
뇌졸중
프롤
쟁이
##지방
##작물
치닫
칼날
프린터
로그
택한
빈민
들어온다
민망
##마루
일어섰
민요
들으면서
대표작
Se
따라오
라오스
재량
주워
##form
까스
제때
퍼트
탄성
유례
WTO
신속히
플라자
어촌
지저
버지니아
토너먼트
도스
분출
갑상
##곡절
글쎄요
버려야
##바퀴
남학생
##erson
갖춰야
서진
##OD
운전사
요미우리
해커
Rob
후보지
빠짐
Qu
##ative
됐었
무소
##래요
투자가
와일드
der
전가
##활약
이토
양도세
출토
단면
퇴행
Sm
부설
1700
척하
블리
농심
메뉴판
그르
딜레마
다져
##께끼
가다듬
이근
동음이의
문어
몸값
##그마
제철소
어부
수수께끼
##영화
넘어지
어딜
멈췄
총사
하이트
CR
무르
기내
건데요
따내
때론
안산시
하류
호화
다량
코팅
강민
이철
함성
스텝
담겼
저게
딜러
공민
파이터
신데
실속
시외
국제기구
발기
말끔
죄책감
김신
##즈음
##더미
예시
다변
공권력
마우스
패러디
올바르
##넘기
첫해
피했
가부장
남원
승화
##폐합
##ky
우여곡절
으실
모의고사
골절
뱅킹
1923
돌파구
보정
혼다
##어낸
시안
취업률
한국사
기묘
근까
두들
몰아넣
맹활약
##land
위기감
얽매
집니다
춘향
현대캐피탈
조교
아랑곳
장흥
경쾌
편법
애완
쪼끔
김시
##도전
산모
정벌
##블로
초교
초선
형국
멀리서
뒤따라
떠난다
선형
제스
패딩
몰라서
매기
##체육
청소기
스테이션
끝냈
끼쳤
따스
몸부림
관대
파란색
공해
Bar
소재지
석학
미성년
파기
어쩐지
터보
옮길
데려다
미셸
##어보
소름
상경
해져서
미스터리
복리
오승환
어버이
전동차
테일러
IBK
세정
##기념
중종
아울렛
백혈
갑작스런
발랄
질러
문화재청
안토니
이왕
선입
경정
뒷모습
이루어져야
We
자명
니라
케인
프레젠테이션
전쟁터
세간
앨런
비워
인사말
CI
군자
절충
가옥
##차기
##⠀⠀⠀⠀⠀⠀⠀⠀
박힌
##지리아
나이지리아
소령
려니
서예
영월
묵직
KG
##nal
매너
주심
원룸
550
단조
학비
비벼
셔틀
유소년
이천
입장권
곁들여
한림
전폭
##시험
닛산
tr
능숙
동유럽
합친
구직
기준치
##11
MW
고국
골격
달력
오메
계엄
판촉
트윗
덩달
에디션
성수기
세워졌
객체
마린
스튜어
연예계
에버랜드
터질
너스
래요
연수원
꾸리
정운
##바르
고갈
신경전
정수기
##사기
라곤
빈틈
공습
빼내
실렸
찬물
감금
유린
우주선
하구
NY
표류
도쿠
섭섭
Su
담양
펜션
that
미네랄
##익스
질책
##오드
보안법
파편
연달
재검토
어찌나
Cent
##무장
테러리
플레
사고력
사부
동일시
분실
Will
호출
좋아했
ml
##민턴
만년
헤겔
이회
1922
집결
모차르트
신시
쿠리
가까스로
자서전
부디
됩니까
꽃잎
마운
두리
엄두
식용
앞당겨
권위주의
슈즈
갔었
글리
창가
통폐합
독보
미디
강정호
획정
윌슨
화합물
낙인
대서
반군
스릴러
크레인
도로공사
빼앗기
칼국수
국익
1921
충청북도
##에른
이정현
삭스
준다면
NGO
정오
아군
반역
비약
캐리
고원
토의
ㆍ일
이남
외할
##ley
나위
지킨
들어도
동선
밤낮
결별
##air
친선
기병
사극
폼페이
For
내건
밀라노
듀얼
당론
시네마
올라서
김범
이랬
탈세
페인트
학설
국민당
프로세서
갑작스럽
ne
##차근
저승
밴쿠버
차근차근
힌두
상황실
경륜
동자
처했
홋카이도
친하
##민주당
직급
목장
추월
부지런히
손녀
예기
사투리
흐른
혹시나
워크아웃
극찬
양천
광해군
페널티
블룸
놔두
##나기
##ital
입장료
새겨져
유격수
우즈베키스탄
LIG
개점
번번
##ven
출사
장동
##예프
##상가
아미노
NLL
슈퍼스타
자갈
콘퍼런스
누군지
대미
ㅇㅇ
칠곡
파탄
무한도전
출루
지켜본
펼쳐졌
쇼트트랙
동무
사용료
성수
##플러
디바
조제
함축
이태원
인파
##뉴스
바깥쪽
덕목
물들
김도
생수
선의
느닷
고단
로울
정글
선언문
회사원
윤종
눌렀
밝혀진
피디
Go
태화
기승
물기
훔치
아로
관광공사
준우승
웃돌
후원자
##태평
살폈
##십니다
채찍
쳐서
1917
전립
분향
##inc
##관리위원회
미륵
연유
피카
##CI
##웃음
##교회
장세
OK
지낼
얽혀
느슨
여종
뭘까
TK
힘겹
650
개동
##니지
뒤처
압류
다문화가정
경복궁
망고
기고
카프
니시
죄수
현저히
교외
고소득
첨예
위크
루마니아
이래서
##ps
마스
피워
머지
견본
핸들
치약
펜스
정태
스며들
어젯
착안
Ass
쓰러졌
아슬
활주
획기적으로
나경
영유
테르
이월
유망주
내국
김보
도화
청라
프로그래밍
프라임
어젯밤
불의
대칭
채운
예절
운운
테크놀로지
BI
비둘기
본체
선거관리위원회
위키
##회계
격투
##ience
삼각형
버텨
##모직
리버풀
일품
투사
구강
루프
귀가
간디
훈훈
조지아
김영란
카운트
타구
레바
##TN
평행
불릴
원한다면
굴욕
배드민턴
정종
앞날
앞세운
경치
항생제
수작
라던
올드
패했
율법
##BI
##초리
충실하
친일파
양승
심도
과반수
##날두
근력
길목
제일모직
체인지
결속
고령자
##돋움
직격
담뱃
로펌
스콧
##그릇
호날두
재외
발돋움
창시
비주
사옵니다
##주곡
해수부
남경필
기와
카리
분기점
기록물
데카
##거스
오디
청정기
담그
채팅
근린
영암
가장자리
내려다
##부족
당정
사상가
최하
친다
지으
##파업
울주군
##ics
채웠
org
꿈틀
무릅
부르주아
오마이
폐수
1908
##모리
도가
제트
게을
황소
한바탕
흉터
각하
가출
인친
횡포
황폐
사시
cat
자아냈
다네
수억
##해졌
밀크
사이언스
경의
배틀
신다면
저변
박병호
완수
절개
탄식
힘써
저널리즘
틀어
Med
교전
개명
건넨
무고
일터
출가
서슴
탈취
And
##ondon
요런
다쳤
확연히
포켓몬
서늘
포식
힘껏
고을
폐막
사색
문학사
산골
이방인
밀어붙이
특가
다가갔
점퍼
총파업
##부리
몽고
##익스피어
CT
평준
싫어하
낙태
카톡
블랙리스트
내과
##ization
##oon
나들이
셰익스피어
소총
휴먼
##제당
구태
고품질
신학자
다섯째
유목
net
기자재
사적
뱃속
파열
수인
창피
가디
열거
설계사
귀여워
절친
##만금
옆구리
섭외
이토록
낭독
개표
전문직
유람
지켜봐야
변할
얼핏
마는
돌릴
비엔날레
리튬
명장
캐슬
부여받
좋아한다
부피
폐암
회의장
지오
떨쳐
##conom
##런치
퇴계
개도
se
공상
추워
히로시마
가습기
검색어
피라미드
헤쳐
취임식
급속도
줄인
부산항
내시경
보온
캡슐
##tics
호투
뜨거워
계류
문정
나사
휴지
유키
서영
현대사
Ag
제일제당
프랭크
구치
갈증
통틀어
합하
미덕
테두리
##수엘라
들썩
어법
##갈이
에미
태어날
전과
##게이션
유자
현주
거행
아닌가요
탄수
바이에른
모아서
뛰쳐
아리아
유시
김현수
아지
CGV
도리어
##마는
느껴질
조급
다졌
수력
카자흐스탄
차용
대출금
내비게이션
스치
시간대
무궁화
저수지
토스
IPTV
장정
고공
후생
맞출
##own
기울여야
김소
업주
자가
Rev
세워야
빠져들
중용
걸러
서태
고등어
합병증
악의
가슴살
##레오
PK
원상
op
노회
고취
기공
강소
원사
조력
배설
수교
인허가
일과
거래처
둬야
현대그룹
진위
최성
기억력
닭고기
시피
길가
예언자
넥타이
박자
디렉
불로
Jour
스카우트
들렀
커리어
포스코건설
IR
열세
군림
개년
주원
정세균
말린
경질
캐피
##지우
##무사
##tical
정열
명실상부
노태우
신항
꾸민
독거
완만
잇단
##생긴
페미니즘
오죽
폭동
달성군
바쳐
어서다
타파
홈즈
내뿜
London
산란
음료수
계량
나이다
뜻대로
저탄
펼쳐져
인권위
으흠
즐비
베네수엘라
경건
상체
기형
변제
##누르
해본다
연필
폐허
선거인
멈춘
세법
경멸
##매기
월남
충원
##보살
거취
찾아다니
알아들
프린트
어드
급수
손짓
귀띔
황홀
그리스도인
박승
##대군
더미
간염
모태
흐뭇
땅값
토트
##다드
Rep
생존자
퍼스
방법론
애리
문과
도표
거트
스터디
브레인
나타낼
사계절
기강
벗어났
퍼즐
슬라
두각
갈대
참담
도성
숙여
실화
넘버
저러
제네시스
중심부
아니야
득표율
권오
라미
면회
립스틱
##도록
새만금
##사관
아낌
외지
강수량
구민
몸살
KL
순천시
중앙선
연립
난항
녹여
##일치
만든다
갈까
권력자
안장
from
지망
느긋
끼친
##가시
노벨상
ㆍ도
1912
드러낸다
책무
##트릭
PF
땅콩
라파
박명
아찔
농작물
조형물
학자금
요기
인터페이스
대추
퇴치
크리스토
돌아와서
광학
선후
노점
메밀
질소
##폭력
말문
##꺼풀
배척
빌린
##yp
그러니
##을까
창건
안착
CM
왔었
BN
미비
부림
##영장
단층
법대
쓰리
잡아당
##진구
##예금
##밸리
인수위
변인
경주시
##oo
산청
##송이
능률
막스
맴돌
오줌
생동
현행법
아득
수순
금년
보잉
법치
204
요르
사정관
미아
자막
완도
지미
##ings
모스
복싱
흔들림
산전
객석
서울역
산뜻
멍하니
서랍
희소
주거지
혈통
##사회
할부
띄우
카테고리
전업
배반
감초
바티
이동국
부러
라니까
##독부
성장기
소량
노랑
제소
총알
레미
환한
마일리
##이어티
유학생
##ma
거주지
후일
왕족
##sch
아쿠아
돌린
소자
전류
국과
중소기업청
##uct
변이
제명
세세
NP
##아아
##ery
깜빡
스마
##위성
천안시
##rat
안타까움
김광현
분장
적중
고귀
걸어갔
강서
꺼지
##app
##레타
헷갈
천연가스
##하우스
스케치
의결권
무술
김종인
문화예술
##ble
헌정
##gram
##득이
380
##브스
히어로즈
LPG
##지원
돌발
펴낸
역사학
##들리
주점
##노소
증여세
헬로
풍습
##echn
제네바
래퍼
카스트
몸담
에로
##모스
카네
발작
에이즈
이글
다윈
계획안
마카오
개항
밑바닥
##aus
과대
낮췄
황토
레전
경비원
동시대
배당금
초음파
System
뒤집어
소용돌이
독립운동가
또렷
삼키
보고회
검사장
Ne
뽑혔
엎드려
보유자
스테인
독재자
듀오
제격
탄수화물
제천
권했
##절기
Am
강압
출입문
환전
귀결
건드
기념품
NO
으면은
맞섰
습도
동질
좌측
It
콩쿠르
청계천
볼게요
괴로움
캐피탈
촘촘
참여연대
다친
카디
등교
마야
변증법
##더슨
달아났
뒤진
산길
##red
받쳐
고산
교통안전
sc
공언
휘하
대웅
##에미
내구
신보
##오른
성과급
집무실
금정
##호흡
##재료
이여
자판
CA
어처
정은
케냐
자급
넘길
인대
수십억
술자리
고층
브랜
전량
내무
맹자
포유
설날
노조원
사대부
독소
진보신
##수단
지지부진
##이상
육신
모성
노령
절묘
봄날
야식
리얼리즘
돌아간다
##ream
카운터
연호
##크라이나
계약자
기념사업
담아내
비주류
송구
소작
알림
남인
병기
##소수
##메르
냉소
기탁
매칭
##드리히
여주인공
주창
커머스
Fl
어시스트
정예
##ium
눈가
꼬치
활주로
후면
갑옷
경악
올려다보
노린
식수
만족감
려다가
겸임
허정
##que
도적
줄리
##카르
피치
캘리포니아주
어처구니
열전
4500
서두
SE
⠀⠀⠀
통치자
ㅠㅠㅠㅠ
우크라이나
당파
조직원
못해서
색감
슬리
한탄
마니
풍수
##22
SDI
##배기
황우
담당관
할애
전지훈련
검장
불린
두르
버려진
우습
잠식
피싱
맞닿
한판
##델피아
문고
가했
학장
내공
한테서
남녀노소
여객철도
아이유
축구단
속보
만능
습기
화약
저성장
쾌감
역력
외로운
요코하마
아치
이우
동월
버핏
편곡
충청도
후예
둘러싸여
전입
he
모국
언행
정할
레전드
ABC
단맛
뒤돌
##ons
으냐
이터
검찰청
객관적으로
필라델피아
크리스티
적시타
자긍
화기
물의
무도
사업체
스트로
다진
##FF
가져와
프로필
급부상
1906
제너
스트레칭
수출액
박인비
과부
비문
참된
##착오
##ward
엄격히
개연
반쪽
첩보
##돼지
축물
##폴리스
경계선
리츠
명료
변비
##니당
계양
판다
특목
Ab
슬기
모텔
네일
수천만
저탄소
시행착오
소정
였으니
크라이
단국
비석
참패
이성계
Is
##가요
브리지
접점
##하키
석상
토해
이조
명부
캐피털
포맷
스텔
용수
작별
##문고
신세계백화점
앨리스
맡길
##rav
##봐도
Mc
굵직
통찰력
수줍
헤엄
문성
걸까요
추진력
임창
체크카드
##케미
다룬다
용적
남방
LP
Pa
타르
목욕탕
상추
##부인과
##보증
누스
엘지
과거사
역부족
놓였
난무
요즈음
우왕
안마
금상
정석
폐렴
신병
저력
##테리아
대한제국
부름
기껏
까다롭
산부인과
뛰어든
블랙홀
##모어
케빈
통통
당겨
대내외
뒤져
내준
굽히
공산주의자
##레스트
##떨어진
수뇌
원도
수로
애썼
주조
안상수
껍데기
장내
월화
떠오른다
나뭇잎
지름길
##rid
활자
즐거워
웨일
다구
##어링
맡긴
전임자
마하
##퓰리즘
조선총
흐리
키보드
##이스터
춘천시
포퓰리즘
이랜드
경화
궁리
##게이
연민
고졸
젓가락
커브
행안
기억나
뭡니까
지바
불가리아
진다고
##히로
튜브
이청용
시가지
##퍼트
센티미터
군복
재연
전매
자긍심
공급자
조선총독부
정령
##터카
조선족
파출소
놓아
박현
왔으나
소비량
아레나
선주
처절
##ope
파주시
신분증
휴무
플라워
왕래
별자리
시애
파멸
##리케
렌터카
##지역
해협
역사가
바랄
적군
서유럽
유닛
굴뚝
특약
무의
정몽준
논설
##트럼
##자키
송환
몰아내
##날드
전인
정호
저작물
##징계
까치
남동생
지크
물동
야수
##뚜기
##혜진
까마귀
복면
수학자
##리우스
만류
심부름
##뱅이
##제표
윌리엄스
머지않
재협
등용
임시회
대니
달서구
서포터
시끄럽
묘역
소실
파묻
움직인다
내사
연골
작자
##amb
하버드대
놀라움
쓰러진
우루과이
연평도
일지라도
음양
이쁜
감량
무릅쓰
박민
날로
토르
순응
##폭풍
군함
번복
기행
방망이
때렸
개회
공적
발가락
방산
숙원
으라는
수유
벙커
윤석민
원재료
대제
유부
촉매
보디
Journal
SD
##레인지
애견
휴가철
재무제표
세차
갈리
강남역
##라마
구명
떠안
##구름
필두
직격탄
명인
스펙트럼
모나
##푸르트
시황
부츠
통한다
마일리지
성형외과
정신없이
비축
플레이스
심기
미식
교육장
이타
재기
##조림
NBA
다이빙
위엄
현충
승낙
육류
지팡이
구본
적격
##즈키
번번이
유창
결렬
파트너십
부지사
제각각
##au
사악
##iness
꾸짖
##이센
대작
쓰일
##소송
인천항
천자
##진다는
사카
발짝
고창
지점장
허니
어려우
는디
##PA
이연
접경
학교장
연한
프로이센
전할
타개
##더니
시달렸
묘소
칭송
따라야
기보
웬일
놓쳤
제수
##태평양
벨라
생후
틈틈
라벨
등단
##ough
헌혈
##에미리트
국제선
프리드리히
제약사
총각
지배자
##오피아
대용량
나트륨
컨퍼런스
원효
그리스어
아랍에미리트
##rap
잉크
ㆍ김
라운지
그리워
파우더
잡음
어수
##we
마르크스주의
놀리
십상
##ute
AF
송정
어설
호세
두툼
에티오피아
진솔
냠냠
조그마
야경
##afe
지주사
지양
##배추
not
내려졌
그지없
단거리
거래법
석권
거물
김옥
인승
가벼워
북유럽
선종
함안
완결
쪽지
코스트
온화
자카
기념비
클라이
러스
이보
고이
심리학자
주총
체격
피렌
##체인
방조
선지
끌어당
청사진
생김
관현
조직력
스트라이크
편중
맞춰서
으셔
텐데요
정약
역경
열연
두려운
나돌
움츠
주의보
목조
전립선
외교통
##돌프
##IE
거침없이
워드
진척
##any
종영
##우병
##ose
스탠드
다승
신봉
자본가
만인
테레
지로
전자책
자아내
예결
당한다
흐느
계룡
낮춘
비친
척결
소이다
광기
늦춰
김호
##블랜드
수배
한스
정상급
중략
식기
##ott
이와
NHK
아이스하키
##다오
생겨서
곡성
이변
퓨전
조미
어때요
철근
##탱크
시애틀
미러
연료전지
위암
파이낸셜
##그머니
##스케
파이어
히말라
광고주
부천시
##세데스
백색
리메
조동
윤영
레이디
손아
##GB
원어
해군기지
대도
해태
레이싱
학술지
알제리
메르세데스
곰팡이
내딛
par
공전
골문
##들레
부러워
원초
정거
클리블랜드
1904
군부대
전위
스케이트
El
불분
으리라고
찰리
연기력
항우
고선
##바키아
처리장
##데르
발화
나간다는
고를
형용
창백
##공서
##ener
동천
제과
올인
피해야
항산
트라이
보탬
버금
트로이
했잖아요
지그
##기능
실형
정파
가져갔
루비
사들이
슬슬
사무관
별세
왕궁
평년
변동성
뉴턴
바구니
노사정
태어났으며
오세훈
##ange
시들
스커트
십자군
병우
키트
평택시
전래
정병
립식
##ision
교란
새기
##틀리
수협
평민
사은
찾아냈
가도
##폐물
물러난
자라나
코앞
퇴사
WBC
내분
히말라야
##케미칼
용산구
오비
치료비
##ames
딱지
주택가
오븐
어묵
도식
패소
무의식
비씨
배역
심재
가뜩
안중근
받아들인
##노동
카메
즉흥
Dav
떨치
하리
양키스
호환
외주
Ins
갇힌
간간
CIA
아뇨
총동원
장년층
근교
##준호
염기
다분
수선
들릴
##메인
최민
벡터
불분명
SA
동급
알린
의향
1909
거머쥐
몬테
반동
##렐라
가리켜
재협상
파시즘
가까웠
후드
미워하
##먹이
체형
##erg
외투
나기
시크릿
스모
심근
불순
위인
라구요
좌표
인심
품안
정민
노파
후폭풍
으리라는
뚱뚱
##노미
EX
마리오
아니한
꽁꽁
하노이
레바논
int
사상자
계실
##포동
굴리
질수록
아미노산
애리조
법무법인
##VE
마이너
운전기사
연출가
황급
남궁
소화기
베란다
예식
##예산
그림책
##ke
옹기
가뜩이나
자형
수식어
구려
게이츠
들였
퀄리티
파나
왕따
지선
연세
청주시
울부
##지먼트
매니지먼트
통풍
##세지
이혜
대림산업
히스
삼국지
갑상선
오리엔
강가
항변
간선
반열
슈트
겸하
밤하늘
##프로
스테이
의과
속여
American
왓슨
조서
게릴라
돌아온다
네모
아이오
생태계
컬링
롤러
언어학
부조
파파
Love
경시
##RS
설거지
포구
res
터트
##earch
사교육비
양분
##브르
초석
표지판
직거래
백운
산업체
아야지
고착
드셔
하의
실리콘밸리
간지
일깨워
##계약
##US
세계사
킬러
##der
도난
수역
정승
Mark
울부짖
확고히
Vol
비서실
대등
노련
경로당
특목고
프랑크푸르트
##따리
나아지
##ene
##RT
상여금
관사
피렌체
영업시간
달릴
프로토
한데요
도봉
신변
팔자
길드
밀어
협찬
오메가
la
총격
선제골
##며시
##마차
성씨
수개
1911
재가
타원
낭만주의
스핀
##unic
미움
냉방
숭고
동해안
통행료
소중히
안전성
림프
마요
##코니
식생활
##orean
궁정
초록색
무제한
시차
병자
퍼레이드
보따리
##용품
스위트
영정
페달
왕가
시초
인덱스
티스
교통망
저울
여길
수변
오르내리
사조
일진
약초
사로잡혀
무이자
노을
도도
입혀
전환점
정거장
루머
선한
경진
김태균
될수록
특전
##sy
강추
엄숙
최승
붕어
카터
허점
남해안
가산점
한기
뒤바
기틀
깃털
불우
책장
연습장
선구자
##레이트
팬티
##oup
김경수
요르단
베스
##밴드
아프간
카탈
병장
타이거즈
이북
매료
일사
##cess
가즈
끌어올렸
발하
장중
결점
둘러싸인
쉽사리
AK
극본
이어폰
##att
곰곰
YTN
현종
One
UHD
물리학자
잠든
##랑카
마중
곤혹
사업주
관음
포대
희박
##IM
케이티
포획
초미
가져다주
이니
엘프
##now
테스
지저분
갖출
수족
변한다
##일체
내란
홍문
걸작
##ors
겠다
위선
빠짐없이
천마
Eng
수조
##춧가루
고온
##obal
사회생활
깨물
차인
샤를
샤오
수긍
바라본
샤프
340
잇몸
액자
행한
##리스타
향해서
으로선
연락처
##부패
동종
하급
##RO
사체
규약
나와요
현기
성공회
사본
토기
구타
리뉴
시금
단번에
수서
안간
ab
봄철
보인다고
넘어설
승승
하루빨리
셀피
##지수
참기름
어뢰
##ler
원통
##ility
비잔
만장일치
하이라이트
강풍
폭설
예사
선대위
안간힘
힘내
안드레
차남
결재
역전승
격화
장영
성패
무얼
##네이
만전
전시실
시문
숙였
왕권
풍광
아틀
카시
225
형수
정기예금
다퉈
su
##LA
##는지
유심히
하찮
밝혀내
노폐물
동갑
##oss
카니
미신
소리치
병원장
다니까
산적
분유
강의실
##무시
칫솔
205
느닷없이
##ett
황산
황실
마누라
초유
불능
발열
애도
##자루
##슐린
에듀
아닐까요
쐐기
멜라
이력서
출연진
찾아간
기우
울트라
가로질러
서약
모셨
참관
하이데
다닌다
주정
숙청
에이전트
짜여
맹렬
가창
드려야
시화
가상현실
악당
조윤
청년층
공석
나경원
완치
증발
단발
발라드
놓친
파이널
##자치단체
쌀쌀
다가서
봉하
수난
인내심
민병
끼칠
전구
형광
##정보
##포드
알렉스
##공항공사
어울릴
TEU
무례
인슐린
개도국
얘긴
신사업
자그마
##취업
국립대
기약
구가
진료비
협주곡
사토
웃겨
화염
오차
공생
브렉
빼앗긴
Phil
정월
##다운
박은
##99
전학
영진
KDB
관전
훔친
들인
피리
비행장
따돌리
적임자
대감
한입
홀리
원문
가히
윤성
##88
분교
패한
자유당
##lect
미즈
역행
유골
낙마
출격
고학
황정
피에르
Cor
라라
유추
리비
모빌
컬럼
은사
잡초
평원
고강
인회
적색
##ural
해했
가격대
알프스
계장
익산
푸르지오
물씬
기자단
왕건
하체
애틀
안전망
그나
HS
몰아주
허덕
##보라
내던
목격자
각료
수저
기발
투병
엑소
발각
축전
##우마
삼성생명
개인주의
MA
왼발
##심장
어루
##그림
노고
##람쥐
선풍기
직감
은총
##ealth
괴로
돌진
장도
승선
블록체인
휴스턴
흠뻑
분향소
선적
졸업식
심상정
##라이터
측량
맞아
인산
신기록
Char
신상품
주안
화원
승승장구
시외버스
값진
집어
허영
1895
극명
부정부패
##투자증권
작업장
CB
섹션
가로등
##겠다
구월
아우구
최형
투덜
뻔한
나폴리
기단
방류
다나
모을
콜라겐
일거
연석
무너뜨리
War
두통
애교
몸소
끼니
##12
감소세
좁히
국제법
소비재
돼도
무비
게을리
역삼
열도
##org
수목원
포석
##지마
다뤘
매실
구세
안테
야망
오프닝
기절
소유주
파랑
틈틈이
국부
스트리
○○○
민회
냐며
비운
1896
자상
경협
조식
불변
칵테일
동두천
빙하
처치
OST
바빴
##린다고
애틀랜
판결문
매립지
발맞
아메리카노
황급히
암튼
돌고래
별칭
일본식
페이퍼
급행
스팀
피부과
폭파
목성
두드러진
신예
수십만
직행
부조리
목돈
정명
붙여진
구내
당직자
구수
맹목
송강
명쾌
수탁
독해
로또
바쳤
##광석
교육자
변방
오른발
흐른다
였으므로
no
규슈
한국노총
무주택
버틸
선방
미성년자
선량
일궈
액정
네이처
up
석탑
하야
칼리지
반증
구심
웃도
노랫
레슬링
북돋
##데시
내려야
감춰
김양
피츠버그
불태
뜬다
넘나들
##도사
멜론
게임즈
결부
Op
##에다
꺼져
WS
납니다
래미안
흔드
이직
공사장
지배력
들끓
단합
처참
##ald
##요시
부끄러움
패럴
끝장
철원
과업
볼리
분신
##료품
2025
양배추
도전장
National
우승컵
불러일으켰
수문
보여서
##lex
익힌
포고
말년
##웨이트
설립자
띄워
직계
애프
당직
편차
국밥
##필품
고야
위아
##가내
comp
마가
리메이크
강화도
카우
한명
차가
조건부
동맹국
일구
중도금
물색
몸싸움
##텔링
실생활
##렁거리
전문대
격돌
버크
스토리텔링
배관
판명
중얼거리
##날리
Her
시험장
##마침
중전
##장치
중앙아시아
알아주
봉우리
생필품
부검
땅볼
무시무시
무등
##보레
##거름
미술품
기압
fl
모녀
우르
물려주
##글라
무식
시에
##과학
앤디
농수산물
선거인단
입출
비키
상어
멤버십
DTI
괴리
일면
페트
보인다는
보위
솔로몬
전유
때마침
SH
소풍
시바
오클
체리
선입견
친족
토트넘
산동
##펙트
험한
화소
##다닌
##럴드
지방산
과학고
밀린
떠올라
해왔
배트
은커녕
Mus
편집장
끝난다
##rist
쿠웨이트
액티브
치러야
회기
##ject
준하
잘난
물동량
창호
보험업
제리
##ata
뻔뻔
스완
##린내
난간
로군
채울
망상
이해찬
제우스
경리
##딩크
사하
가로지르
두터운
##내렸
콜라보
숲길
외야수
##기계
##둥절
접어든
대파
놨다
득실
막혔
##토토
제방
어리둥절
천둥
대응책
대차
수화기
차이나
야근
정동영
회부
부가가치세
##각형
inter
로컬
효도
니켈
사업소
티아
##대성
코프
압구정
##통수
대장암
##바리
허탈
FT
지마는
어원
휩싸였
구금
두껍
고상
주치
자석
선다
아스널
빠진다
스케일
글귀
##ML
남양주시
Bus
mg
법사
정교회
사절단
너비
제단
지뢰
어린애
코리안
자화
강동구
빙수
총량
KDI
여과
누드
##제르
히딩크
본보기
모서리
와도
부턴
숙지
로지
커스
이율
##푸드
스타크
독신
백수
센텀
브런치
##아치
순대
##케어
수프
송전탑
바야
일전
문하
알려준다
고체
나루
전셋
문학관
빙상
갈라지
은수
##업소
영호
흔들렸
붙잡혔
팔린
혼선
후반부
삼국사기
##해튼
었잖
체불
##서니
##임새
명하
치하
퍼팅
유스
이형
am
선회
Rel
##EE
KLPGA
포근
내게는
##uman
##ouse
누출
윤회
개각
관동
분개
카이사르
교향악단
책임질
인적
이체
누워서
활동비
사서
축산물
Pet
용접
정희
옆집
원나라
점쳐
어루만
다윗
험난
황태자
실컷
구토
펀딩
매끈
1913
밝혀야
그걸로
허약
##배상
손수건
삼계
야쿠르트
목표치
Gu
뻔하
##토피아
자태
홍천
##CA
세아
##pt
골치
낮잠
대대로
라트
였음을
낮출
의왕시
히데
경도
심성
힘겨운
라야
사바
가덕
예우
보여야
업무상
송치
공리
김포시
작업실
가압
헬리
고고학
캄캄
릴리
무침
찍힌
투르
순전히
##슬로
마십시오
접견
세워져
제프
커피숍
압록
일러스트
##14
에스파
몽땅
검역
던질
##25
롯데호텔
Hist
부식
내민
이학
스포츠토토
일으킨다
화물차
are
낙원
순경
잠복
스페인어
그럴까
세팅
치워
중령
휴양지
프랑수아
포터
넘쳐나
도맡
맨해튼
흔쾌
##33
빼어난
Je
##로니
나이키
월성
꾸몄
찹쌀
발톱
부딪혀
지울
균등
까먹
적재
##일러
마칠
일손
##유사
##습관
쫓겨나
420
광우병
아보
##연구소
곧이어
##15
걸쳐서
JP
CES
##구이
트인
뜨거웠
아플
메릴
##축제
태산
진급
답안
##나스
일파
na
차차
법리
거느
##로이드
모교
번성
편해
뽑아내
모유
천진
성토
힘드
##덕션
견과
전병
줄까
혼수
블로거
SSM
신통
억류
한적
가신
##봉사
백혈병
아브라
평화통일
ㆍ인
석유공사
역사관
울프
타로
간파
기관차
Sec
악장
이세돌
GO
##evelop
로웠
리코
시판
커트
최대치
##회원
반고
약칭
문화부
퍼붓
지켜볼
집들이
희망자
스키장
데이비스
부단
##urn
잡아내
쟁취
이주민
천식
합참
##투수
왕세자
##먼드
사천
으음
써도
양조
열사
정맥
안부
##벼락
광안
흘러나왔
미키
적립금
국력
켈리
권한다
생각났
끄집
검은색
전도사
내쫓
무스
후한
외벽
대소
인피
뜻밖에
미카
유민
##으면서
빈약
초인
고점
좌상
##omer
갖춰져
달구
트렌디
주성
소울
##EM
저당
앙상블
한라산
밧줄
애덤
종묘
사살
포커스
김덕
자성
우두머리
도선
진부
유유
자자
##ction
##iff
##겨울
Stud
박연
헬렌
티저
어떤지
참혹
##코인
뒤통수
대치동
개운
프로야구
천성
수기
##ature
개칭
미화
장가
박선
증원
선후배
정영
콩고
소용없
문무
삼성동
양형
850
풀어내
투영
구먼
니아
만한
받아들여야
가파르
오리온스
1915
금지법
잠잠
마리나
학군
WW
드러날
Per
글래
식습관
직시
카다
갈치
애틋
##기념물
백조
##유키
배꼽
용맹
펼쳐질
CH
Pe
##Hz
재미없
나고
얻어
공양
줄여야
임정
맥도날드
고배
입김
대남
흘린
내리막
베이컨
탐정
싸운
패자
동일본
건져
넷마
절세
되돌아가
평지
##난방
William
초당
##선스
소도
##푸르
불발
프란치
시몬
지아
해장
국공립
예스
도마뱀
본다는
계보
##민주주의
선양
간병
성가
##처리
ISO
끊기
움켜쥐
명작
제곱
책봉
난처
오랑
서동
일수
펀치
웨이브
교시
오오
호국
IF
군비
갈지
리프트
최전
크롬
##ited
어다
하산
빈자리
시오
궁합
고속철
man
선발투수
앙리
석회
국교
달려왔
수뇌부
포탄
역주
도다
##ays
괴로워
로이터
상록
370
사병
태수
타오르
대진
여긴다
덕수
천연기념물
컴퓨팅
챙길
290
네이션
소질
##agement
연약
NAS
평평
폭주
유대교
이언
라이선스
바란
교섭단체
환희
찰나
기사단
이발
자만
깔린
조승
케미
발암
항체
피신
재취업
했어요
골드만
겠다는
화단
##sc
우리은행
영미
207
판매자
샤이
태권도
ㆍ소
##atch
넷마블
토성
##oint
가할
##복음
##니티
숙주
정미
##통화기
##통화기금
가디언
구례
완강
되돌아보
##다발
##아슬
##을거리
##노프
독단
살렸
딸아이
##도니아
##태영
각색
양구
Robert
아슬아슬
돋보인다
le
서현
개요
숨쉬
1894
인신
##트니
여객기
Life
발바닥
##러브
불면
인공위성
##────────
상서
시사회
구치소
트레일
통곡
걸세
##추세
멈출
반출
ind
꺼려
보호구역
도로는
끈끈
진사
겁나
쳐들어
해전
망신
##ym
부산광역시
인지라
조계종
정수장
기념행사
벼락
광명시
국제통화기금
본받
소라
##팽이
그리드
중앙지
트라우마
더없이
행세
출입국
로망
##츠키
사명감
엄밀
그래서인지
사비
ㆍ기
막아
화전
##ii
대리석
맞먹
회유
네놈
어항
foodstagram
모리스
dis
돌봐
qu
강습
산후
일그
시구
온기
템플
호호
비트코인
형량
피어
더워
##하고
하녀
무용수
산성
슬그머니
양방
한족
##자료
##래스카
연연
지은
블룸버그
살균제
연명
##por
지휘봉
한화그룹
액면
인다
왕립
##저나
기로
라이스
불기
글라스
란스
송나라
##res
Inter
자바
등대
지긋
시경
유라시아
##라지
송신
##uction
노렸
서클
##사진
어류
장례식장
악보
##야스
##alk
별거
몰아치
빙그레
그나저나
스칼
클레이
옹진
채식
성곽
입힌
골반
수의
극작
납작
레이크
시찰
이동하
유태인
ㆍ공
에워
프렌치
DD
섬진
Part
스파르타
개울
원론
미끼
오인
론가
전함
##가슴
HP
일출
위즈
무거워
로보
오감
##반찬
교육학
손해배상
되물
반주
정용
외삼
부득이
IPO
문화방송
스탠리
안테나
일몰
##렁크
##에어
##tis
팍팍
내놔
고파
도미니
암석
유명세
값싼
후안
플러
면하
웅크
편도
즐거웠
WHO
##게티
중징계
호반
강희
정약용
생가
이회창
서태지
강우
배합
GPS
킨텍스
직선제
성년
쇄도
##ㆍㆍ
##트로이트
기간제
죄악
출항
대원군
대패
종착
마그네
어수선
놓칠
집안일
발끝
티브
##LE
결연
평했
지라
망라
디트로이트
##정원
##프레스
샌디
##66
##누리
영락
480
베이스볼
했으므로
옥스퍼드
##거림
트렁크
콜린
##자치부
치욕
날씬
명랑
휘청
단수
계십니다
방심
했어야
굳히
비오
최인
삼성카드
##II
포르노
행정자치부
원리금
라이온즈
역내
외교통상부
미투
##스럽
힘찬
가릴
##조각
소급
테오
나눈다
수신료
##보기
변천
영등포구
리얼리티
배심원
경남은행
new
역습
연고지
조병
낭패
트로트
소공
덮여
이봉
##화학
##ole
끈기
주희
승부수
준설
조희
권태
가리켰
무예
##우주
수은
##ger
과소
말썽
남발
병풍
어여
하모니
소심
외무성
비철
기왕
##축구연맹
##세스
현판
낸다는
예예
블루투스
열강
찬바람
외계인
YG
매춘
서초동
방송법
발단
USB
단선
장작
사은품
그로
유형문화재
회고록
반등
지도력
##몰이
외자
##레븐
##운데이션
리안
백과
파운데이션
기치
per
벌금형
OP
보이콧
초심
레즈
토하
숨결
찌푸리
여쭤
훈련장
고덕
스타일리시
공격력
참고인
기린
호적
NHN
차렸
Econom
격상
ㆍ대
악단
관공서
성큼
모신
물감
침구
##바위
제안서
##불이
악한
##ese
밑거름
혈세
전해져
미켈
불멸
여고생
교화
도르
설렘
박영선
장본
하이데거
Mod
멧돼지
##곡리
##임수
블루스
오름세
우기
닷새
권선
라네
백미
##라면
GP
패치
모션
볼일
성자
안병
##려면
##니치
부르짖
변기
무드
실록
흔쾌히
방청
피칭
무기력
베이커리
감도
밝기
장지
마스터스
##조류
ag
노키아
촬영장
헌장
##파니
##ated
쾌거
##휴가
반듯
테크닉
SKT
제멋
관세청
선수촌
##ius
##청사
2400
명종
오아
갈아타
할려고
여실히
불거졌
##소년단
기슭
오정
부치
위시
##보냈
comm
메스
상투
송시
이병헌
암세포
함평
인준
시라
##영향평가
캐치
내려서
파전
요직
제강
진군
무심코
봉합
유월
각급
닥친
요일
##리지
소비세
북서쪽
카인
무마
##그래
운전석
엉터리
부렸
도수
로직
수개월
두말
정력
##서기
##충제
CU
##마니
do
아바타
응징
흘러내리
삽화
사회관
인부
키움
##17
##잔치
다이오드
매거진
나고야
종주
##55
진주시
영유권
하강
환경영향평가
벽지
나니
무작위
통칭
##동물
일렉트로
Ro
퇴적
##EST
금천
논산
세척
흐를
팽배
축조
##uck
Dis
##위대
SI
남대문
벗기
제품군
니혼
반향
불이
테슬라
거동
클리어
태운
전문지
제갈량
화천
##타기
행각
가성
##iety
부양책
##진흥
레이블
알파벳
수사대
퇴각
##마른
진성
유기체
터무니없
버금가
김한길
저물
도쿠가와
내려진
남길
방문자
필립스
떳떳
반칙
핸드백
귀향
레고
물방울
순항
온다는
310
내진
돌격
식스
레버
강과
흐려
ㆍ서
심폐
206
##타고
시민운동
누굴
##모로
성행
줄여서
##탄불
헤아리
##깁니다
매사추세
##텐도
산천
악성
융통
썰매
통운
떨어진다는
아폴로
out
면밀
읍내
##질서
중독자
가래
##ates
섣불리
등락
삼국유사
더해져
정부군
비밀리
조준
현빈
어딘지
신다고
닌텐도
식료품
회자
상속세
이분법
매사추세츠
도메인
수구
출사표
번뇌
##맹이
프루
아낙
압록강
##ness
프랑스군
##fer
조폭
마사회
이스탄불
##재판
김성태
회의록
엔젤
블레
반정부
권세
에볼
all
selfie
약진
신학교
굴곡
물꼬
풀렸
국회법
방제
광복절
벌어진다
새콤
SPC
아파서
전등
물티
돌기
유실
부적합
평점
053
블라디미르
신현
아반
떨어져서
인계
중수
중공
고춧가루
명가
오성
콘테
##iation
처신
지역주의
안쓰
나약
제창
금빛
토익
들여놓
App
바가지
비어
적도
빈부
매수세
##코르
뒤흔들
##니언
##효과
불운
과하
모진
호모
공민왕
감미
브릿
테이크
기념물
행인
비무장
연사
##투아
##란도
살상
NA
원종
신호탄
##타나
미완
1916
##각서
이재오
한다거나
거쳐서
차액
황기
##비용
스메
백서
소시지
네스
답한
아편
총독부
시게
고삐
블랙박스
정취
##oph
고하
데려오
합천
앞면
##공주
유니버설
의복
##교동
잃어버렸
법조인
##yl
보아
닫힌
상충
중개사
까만
널려
도면
박석
후궁
펑크
##동산
애원
유시민
물티슈
##벌리
동호인
동성애자
구술
뒤쫓
포티
끼얹
기울일
관은
프랑스인
프린팅
초소
행자
사용법
ㆍ여
범어
경영인
BO
스튜어트
몰랐다
단양
아디
체증
신관
콤비
오동
메르켈
간다면
졸음
무수히
산호
일용
닥쳐
##대식
카페인
코스타
합해
현대증권
다목
레이트
고압
내용물
박형
접해
뼈대
방관
순결
##득점
한산
문희
유다
정쟁
높인다
##일관
##rain
현미경
휴양림
헤딩
창시자
진달
친지
차입금
방편
레이건
분경
우방
##글라데시
볼링
리즈
사재
교황청
네이트
병영
앞장섰
애호가
적나라
서글
##찰청
날아오
빨강
연작
화신
유모차
장려금
봉착
영양분
떠도
하숙
내려갈
받아들인다
방탄소년단
박철
양해각서
수도권
산림청
헤어진
로크
밀렸
술탄
##마드
로얄
##bid
7500
축구장
밀려나
예천
피서
얻어맞
나가사키
독일인
기선
##질렀
화고
항문
이정표
후미
캔버스
항공모
평야
핑장
초중
음미
고베
성역
의외로
감돌
방재
##바라기
JY
기교
실과
파국
1890
여호와
교민
##황후
앞세우
납세자
패션쇼
물놀이
##ious
방글라데시
핸드볼
예치
장구
물어야
천리
로저
교통수단
뭔데
##꾸미
전태
성의
좌완
취해야
예술단
공덕
모란
펜싱
들어맞
애칭
208
보임
##지가
##13
대손
변국
타지
병상
자회
이광수
KGC
곧잘
##불명
오로
자크
##75
방범
백업
닭갈비
감내
신간
동치
엣지
##클레스
##저지
사가
익스프레스
##45
기대치
안겼
청담동
Eur
대놓
##십리
마카롱
까맣
점잖
이슬람교
허나
원성
##정리
다가온다
청했
##my
##레타리아
MIT
##yle
오대
존립
##cle
이기주의
옮겨졌
트릭
찾아낸
꺾이
가르칠
대검찰청
cc
순탄
살펴봤
잇따른
영남일보
데님
수세
축출
판시
기다린다
비지
##폭탄
우발
온다고
긴박
박한
430
프롤레타리아
아수
눈초리
플란트
종단
질감
풍물
골랐
##만치
복고
조림
협연
봐야지
풀린
월가
##림픽
통감
법률안
기뻤
특산
열량
노장
사월
동동
하순
ㆍ전
첼로
고마워요
맥아
##포스
전문학교
바친
##수염
영양제
떠받
이복
트랩
Er
달려오
##눈썹
미워
장문
신경질
고속버스
약수
떠올려
스킨케어
##경영
빠져나갔
케익
통념
EV
야산
괴테
##주부
시흥시
신빙
안성맞춤
되살리
설악산
백일
향연
세브
속마음
보탰
답장
##ze
물줄기
관리인
괴로운
냉철
뜻깊
부안
공경
양현종
찍혀
폴라
애국심
##자실
진실로
##끄러미
2200
부끄러워
이덕
절실히
믿기
반세기
알아차리
재조
책방
##나절
부영
주간지
무의미
고금리
봉인
암울
특공
서귀포시
수모
시식
갈매기
발사체
##ount
레슨
##꺼기
최저치
코파
비틀즈
스피치
##베이거스
송년
도호
구스
##메스
was
꽃피
박테리아
우선시
라스베이거스
렉서스
무위
##그네
손등
산신
탄광
슈틸
기말
너그
비쳐
분말
KEB
케임
떠들썩
서머
1898
당사국
불금
지류
Paul
##적거리
맞닥
봉급
수혜자
한영
김춘
슈틸리케
폭언
수연
##리니
https
기흥
살롱
정렬
찌꺼기
뛰어났
타진
청구인
김성근
크레이
##보리
중개업
반미
걸요
관저
페인
##정지
슬퍼하
늘린
렌탈
숨통
장학생
교두
보루
무형문화재
김태호
모퉁이
##저곳
범람
이곳저곳
곰곰이
IN
섬뜩
나우
창밖
면책
점성
성비
지반
설명서
오자
미로
##중국해
약재
제하
허다
왜군
브러
1899
자활
넘나드
하자
계주
민수
먹을거리
일족
차출
제멋대로
초저
209
희석
발제
이동해
상업시설
외삼촌
자족
어우러지
##ford
하비
##호영
조중
유토피아
파리바
##eph
정박
마케도니아
수현
젠더
이홍
일병
instad
개화
##볶음
백종
최희
##창호
문물
고위직
낙타
개헌안
분업
찜질
##큘럼
상작
안구
##일본
공국
기해
상쇄
역과
진우
##rit
##르바
췌장
장엄
##인구
한다든지
절규
기성용
애틀랜타
모독
복당
쿠스
ㆍ수
계세요
담수
##지휘
매끄럽
그자
못합니다
속편
김기춘
볼보
누수
상계
원어민
팩스
고어
##마당
문책
머뭇거리
청룡
청해
그린다
브뤼
징벌
전셋값
AG
##중독
금회
근현
트림
피로감
기막
경부고속도로
커리큘럼
최면
여름휴가
이끌어냈
장윤
워즈
상학
공매도
##ents
마이스터
메워
깡패
5500
속눈썹
투데이
##무스
취수
##관리본부
아뢰
따라붙
분지
오보
##커피
김철
근저
바빌
검단
흑흑
순순
라임
사와
사림
##행정
##oto
비선
유람선
개의
따라다니
북스
위급
##손가락
앵글
묵인
다람쥐
세비
비수기
판단력
컬럼비아
점하
양악
전권
카마
게리
담가
발원
비염
토사
사활
한정판
##ru
김수현
발코니
온건
아이슬
롤링
느니라
Serv
아벨
##을지도
성실히
광산구
출소
함부르크
삼양
헤헤
수혈
해야죠
Des
금발
높여야
국산화
여직
열띤
##바구니
세이프
도급
항공모함
강신
메디컬
Techn
빈소
점주
밸류
생동감
키친
의료관광
카를로스
부업
월등히
오호
코로나
변별
소견
유채
##장자
256
사회당
EM
금물
더라구
재보
쉐보레
첫발
CPU
신용장
비대칭
##━━━━━━━━
동태
홍명보
모피
Bo
조달청
장본인
##음료
주중
##아졌
FO
시승
광양시
서대
##포로
아이슬란드
추계
pet
제주시
##길동
##ning
물길
일례
소문난
im
쓰여진
##순간
계망
후후
##골목
가야금
##조작
영산강
자유민주주의
아라비아
배아
질병관리본부
물끄러미
현혹
박보
전광판
육회
포옹
##lin
오두
밸브
여보세요
연화
FR
도립
빨갱이
##촌동
가자
라오
갑판
병동
취한다
해바라기
정숙
##해하
인단
##TRA
빛났
김영철
블루베리
최경주
##orth
항암제
민첩
어림
종아리
##77
예탁
이유식
잔금
철광석
전서
아반떼
실직
행군
뿌린
노론
암벽
단락
더디
콜드
주술
가쓰
지하철역
눈매
왜구
포상금
UP
배고파
비화
로다
마곡
수해
재능기부
걷어
불러서
뉴저지
종용
##net
마이크로
피조
스파크
신동빈
갈림
거르
못난
양립
발등
리딩
인색
아브라함
묻히
어허
##달리
결정짓
관우
연천
에스파냐
Cal
종파
mod
드려요
꼭지
대낮
다독
서천
장승
도자
소극장
이채
담요
##장수
대주교
다그
속했
엽서
천혜
##더드
id
서병
오갔
진달래
빨려
##사장
##에이터
##착륙
송라이터
캐서
안재
서성
절하
체벌
키워야
SN
두목
베르크
드러낼
대행사
초고층
병들
의전
미칼
카바
만리
머스
데카르트
러서
연마
##진진
##쩌둥
천일
책임져야
팩토리
##게이트
##ely
부러지
한국군
완벽히
빈곤층
제스처
팔찌
필승
머문
해프
##소타
불통
총영
방점
##콥터
밝힌다
세일즈맨
NASA
부원장
스몰
오송
향교
마오쩌둥
로리
별관
덧붙이
개찰
떠넘기
상역
하이퍼
잘생긴
##21
##칼리
습성
##27
##ext
물갈이
##받이
Social
깨진
빚어지
토탈
친목
##거린다
엘리엇
후식
두드러졌
컨트리
나날이
밑돌
##LO
미군정
개최지
파이팅
David
연장전
##공산
코노
##ET
헤아릴
부려
민간단체
명세
연례
했어도
난장
Dr
잠기
##미애
붙일
##food
매트리스
시커
JR
문맥
리베이트
피에
교직
남다르
본드
고깃
날라
조선왕
성탄
건재
캐롤
웨일스
루즈
토이
##테르담
아름다워
자력
제독
판세
연구비
##ission
스테인리스
리온
스냅
##문제
유병언
##번스
개종
##oth
##랑크
뚜렷이
대종
통진
필하
임재
패럴림픽
누님
유니크
정모
노라고
가운
빌리지
##혈증
신태
부유층
면면
애용
횟집
알차
벨벳
발포
부주
일절
유재석
신인왕
##운동연합
극락
다릅니다
묘하
서희
수트
계산서
공탁
양산시
거사
들이대
##23
끈질기
ㅡㅡ
김만
##24
겸직
최현
메드
저편
하물
고관
덮개
송출
UC
예문
##령관
디렉터
Rec
##렌트
##틸리티
집적
##28
바겐
웨이트
피웠
Ver
식도
칭기
한들
이황
징용
옷장
피살
모종
베어스
전성
승부차기
미네소타
장제
##르노
에밀리
여라
재회
플래그
gr
##스러운
여러모로
되새기
요충
##은희
찾아올
기제
발레단
조양
바티칸
용암
관망
신천
##티시
##림동
노동계
와우
전범
폐교
글루
유틸리티
제청
히히
rel
철판
두드려
##잣집
서도
그랜저
편파
빼곡
naver
Ma
히데요
명물
##실베이
네거
대통령령
##실베이니아
복안
살살
양치
법원장
Int
악명
부서지
이너
공학부
발신
이과
흥미진진
밑반찬
탄원
##바이벌
프란치스코
진시
매서
뽑힌
당은
한경
##olution
튀어나온
##잖아요
미끄러지
플러그
헌병
성욕
펜실베이니아
##ther
김중
최하위
중랑
체스
라멘
헤치
해프닝
거닐
남서쪽
##감독
RPG
##정책
##쳐야
광채
##ency
제너럴
화웨이
##fl
영아
접착
형체
막아내
스탠더드
프레드
로열티
초가
##치산
훑어보
고해
foodp
승부조작
난폭
기생충
해이
빠뜨리
##플릭스
프랭클린
##석희
우리투자증권
학벌
215
흔치
##formation
##16
섀도
배운다
넷플릭스
불식
##ye
##첨단
어로
인화
통관
흩어지
순순히
명지
대장정
크라운
콘스탄티노
수칙
사들였
반달
영상물
IA
인먼
오니
##수무
시금치
안나
향년
뇌리
##브리지
섭리
재산세
마자
피어나
골수
방중
살펴본다
삿포로
아자
로버
러셀
그려지
블라우스
문집
고군
일석
지어
한대
헤비
달팽이
어쩜
아름다웠
원할
프론
강원랜드
더냐
균일
아몬드
나팔
##ck
하회
##lish
똘똘
정몽구
내림
정신병
아트홀
사탄
모더니즘
SL
가곡
재치
이글스
무패
전주시
지나갈
사변
##미트
굴절
도처
##85
학생회
알로
나자
조부
대학가
손보
지프
니코
모모
고칠
날아갔
석조
정강
장단점
강관
팬택
자결
하층
자가용
리티
문전
마티
트레이너
못함
집시
양태
뒤따르
덤벼
경실
북대
현우
리빙
윤동
투항
##비히
심미
변함없
예예예
치웠
허전
pol
##str
인포
##35
금주
쇠약
AB
##ravel
스타크래프트
디딤
여대생
방불
넓혔
##머니즘
##버터
##하르트
고든
기마
벌려
큼직
생계비
분통
연해
미들
체념
꺼낸
접했
##uss
프렌즈
회개
슈퍼맨
난제
와라
MLB
겸허
병마
울창
금수
성심
창업주
헬리콥터
비호
가의
양주시
자칭
이정희
뽑아
허망
##샤오
천문학자
일월
가압류
전법
역외
##누이
##덩어리
내보냈
표제
가람
밀수
우먼
원세
하나같이
날린
은서
##레라
알몸
어딨
감귤
즐긴다
두들겨
노회찬
벌어져
##펠러
SDS
386
ㆍ보
선하
후추
네거티브
지은이
이유로
사의
기록부
노량
콜럼
이리하여
누웠
##타오
건성
느려
알짜
윤리학
조우
방지법
기타리스트
식중독
##sych
추수
연석회의
시댁
질식
어진
##ator
반점
시름
급선
브라우저
베어
독립영화
하워드
##링턴
235
정신력
무너질
영의정
Thom
불경
권혁
페스
프라하
낙서
정한다
피식
Global
번져
위기관리
##MCA
피카소
cod
현악
낙점
시편
ICBM
전생
절호
불명예
마담
PA
투르크
저점
별반
나그네
모로코
야후
##교사
화이팅
##ude
##연료
던진다
등불
옥시
쓰레기통
아산시
위드
내려간
삼계탕
떠서
440
혼신
##까봐
방증
소피아
애비
어울린다
soc
은신
경련
제빵
대물
해결사
북동쪽
받아
스즈키
로브
##26
최형우
팰리스
살충제
전조
다각화
진찰
체구
윤희
수증
하물며
놀러
뒹굴
공정성
콘테스트
허기
식빵
Fre
학도
##노당
으레
##쿠니
신당
갸웃
현관문
달린다
간암
활로
숨겨져
520
Min
내디
코딩
##이동
함박
넥스
Book
단비
아늑
악어
연산군
선거전
싱크탱크
물살
호스트
신데렐라
청순
경미
주물
##니엄
차관보
연기금
DMB
고물
누진
MBN
##자스
##rop
비탈
수진
##던트
바라본다
잠겼
수임
중심주의
##work
민노당
궁지
우에
항공편
임팩트
III
와요
캡틴
사각형
##재해
판매점
기출
젠장
최고위
##애미
##불교
델타
기념회
2300
단상
구자철
군위
깻잎
안색
##회전
꿀맛
주군
허덕이
어렴
경영난
맞히
물놀
문수
트윈스
스리랑카
아세요
최첨단
##바바
애프터
스파이더
는지요
순매도
재인
용액
힌트
화엄
할인점
플리
장현
마이애미
편승
##놀림
교주
유생
노드
6500
녹조
원정대
경각
독식
##ane
살아간다
바꾼다
사발
퓨처
제주항공
##홍철
왕정
구릉
달려온
하남시
출근길
접한다
따낸
안기
극작가
PER
바실
외할머니
통할
보여요
추스
##으리
최문
사민
분대
##르트르
공고히
del
남작
카다피
교두보
질리
외대
찢어지
돋보였
변함없이
##44
코코넛
인류학
과천시
말소
ㆍ유
샘물
##카도
루소
기장군
장보고
섬진강
탐라
태후
다락
미연
부축
서사시
배지
위트
호통
해상도
이석기
박완
해직
베푸
시켰으며
의중
cafe
루크
##evelopment
Rich
미진
파헤치
김두관
매카
투옥
##눅스
부산은행
더한
둔갑
함의
납세
와이드
요번
옥외
고흐
야유
##나비
철제
안종
##전쟁
웨스턴
테러리스트
통근
숨소리
이권
탈레
호도
땅바닥
전압
남아메리카
rec
##러진다
블레이드
모하
한명숙
사우나
교동
선반
##틸렌
뛰어다니
진중
기입
박빙
와이어
##멩이
유구
협소
어획
통신비
정확도
치장
재빠
리눅스
혈연
##19
##블릭
다분히
의뢰인
솔라
##학습
남동쪽
끊겼
못한다고
완승
해석학
만행
생김새
원예
흥청
극소수
팀워크
가오
적막
박시
시트콤
각별히
새긴
웃돈
##링크
이봐
프로덕션
VS
흐릿
구덩이
OB
뚫린
신조어
멋대로
그제서야
의인
속임수
##수정
우의
늘려야
일임
끌어들여
캐리어
해운업
게시물
228
태양계
##미사
무주
송시열
동강
아킬
변덕
##ein
라가
투표소
##쓸이
영화사
환경운동연합
나온다는
사무처
##산업개발
Off
형용사
레이어
학번
무용단
##irst
연두
##ody
이요
갈림길
Che
훤히
목판
헬멧
북한산
라온
오케이
나토
졸리
직경
발행인
마주쳤
청색
파벌
헤어졌
기뻐했
##반구
모티
##버스터
##ection
노면
포섭
밀란
싹쓸이
YMCA
누운
순한
문진
부총장
빽빽
외압
페더
거란
핵연료
우표
Good
죽임
찌개
아이비
와해
요시다
##18
##상정
사생
패스트푸드
시향
##ict
자청
##미스
하이드
1901
디펜
페니
광둥
수놓
노블
돌멩이
투약
건널
오마
##bs
##분투
1903
백남
속력
자음
서대문구
James
부침
##ield
##거품
필로
어렴풋
값비
해밀
도비
나아갔
박제
윤치
수아
##arm
세네
살라
서당
col
##사이드
끝낼
1902
##중기
다가갈
보쌈
내키
회가
문창
##스톤
밝혀져
Fed
LO
교의
최태원
각막
형편없
빠져서
프로그래머
지날수록
이만큼
금형
김성수
살핀
재결
문란
없앤
의령
##간접
##사항
찾아낼
관찰사
풀릴
이완구
스트라이커
짜장면
논어
시늉
경차
별미
진가
낱낱
##aby
참모총장
상도
마이어
흠집
이용료
##uth
교습
부드러워
깜깜
미백
요격
##각색
##inal
휘둘렀
알베르
폐사
빅토르
려나
민물
우스꽝
Ev
곤두세우
공복
화교
그린벨트
전기료
목청
타카
특파
파나마
육식
##팔트
닉스
악역
##여정
슬럼프
아낌없이
##개골
분담금
시종일관
숙부
##갈색
풀어놓
노원구
잔재
북아메리카
오다
담회
라이더
고택
두유
사저
역풍
조선사
드세요
성현
감염병
차린
##년기
##acy
병든
소말
조심스레
##프라노
렉스
미간
가르친
##나르도
임태
소나기
빨아들
##eau
물러가
자오
##종일
크리스토퍼
##상승
가브리
선화
ㆍ중ㆍ
아스팔트
떠밀
앤더슨
##ont
기라
사이다
단호박
그려졌
표고
FBI
성호
수완
##ral
미하
쫓아가
##승지
##진우
항공우주
##헌영
TS
감명
희생양
플래닛
##자와
GTX
이효리
넘어간
##테르부르크
가가
뽐냈
충칭
경종
발대식
헌금
##부사
##eng
들이닥
자산가
돌이킬
그리운
노린다
음색
죄다
채색
보수주의
반년
##ior
1897
자금난
그리스인
이낙
전자파
경구
시추
정읍
##매장
바자
따온
셔터
피플
질려
반대쪽
인칭
벌거
스마일
바래
산만
가지런
디바이스
망막
케이트
혈중
혼잣
기권
쪼금
미남
찬송
음절
추미애
케이프
양천구
cont
대당
겨자
점막
유원지
폐단
뚝딱
증빙
##부대
메아리
주효
##시원
214
##듭니다
##맥스
신호등
어벤
찬찬
라지
총통
예비군
솔선
커녕
허름
##치마
외양
코인
흉노
광선
노이
박대
신드
삼림
앞당기
숯불
강경파
아이구
그을
넬슨
허둥
##berg
모기지
감독관
투자처
app
##산면
##의지
자연재해
피보험
이뻐
정육
완제품
올려야
##토미
미상
후려
가엾
##효진
잔해
offic
연대기
수영복
##메니아
##석기
##플릿
황우여
과오
화목
거듭날
돈독
##덜미
##산리
##bert
닫혀
에밀
통했
분분
쌀국수
생리대
trans
버팀
##로프
공부방
460
청동기
묶인
밀폐
잡화
경실련
비겁
워시
해녀
##버릴
이승훈
##지구
##95
kW
길들여
반부
만루
불러오
##여름
##DC
잠긴
고등교육
런닝
페르난
##니시
세운다
마태
부들
수빈
연단
합성어
등심
불륜
기판
남조선
총대
무자비
동식물
취록
##지물
불매
한솔
효종
들려준다
좌지우
좌지우지
무더운
발맞춰
개진
레트
민원인
확연
버클리
소나타
##중간
Chris
gl
추행
##제강
대할
뿌리치
##순위
현대산업개발
매운맛
불면증
Don
신협
진다면
경수
##거슨
임영
블록버스터
216
WSJ
닉슨
일신
KBL
대합
러블
사행
위자료
카나
피사
지구대
몸뚱
연수구
고조선
로페
리허
빌헬
아르메니아
##신호
쓴다는
교학
된다며
지정학
##미리
독선
##ific
중거리
재조명
KOTRA
번창
주어
스카프
문사
##톡스
마피아
행여
에너지원
사들인
율곡
스가
##ally
알래스카
##시울
Bro
여의치
금오
심장병
국문학
눈시울
서커스
가평군
산산
뒷전
쏠림
##혈압
모사
Net
독과
빨갛
구급차
창사
##결연
부록
세무서
도읍
현란
선덕
##극장
대영
Do
공급량
오락가락
##드기
펭귄
2100
신춘
자카르타
궁핍
띤다
매달린
##히트
##박질
##세라
남한산성
상동
자매결연
더비
망할
중등
중금속
부기
걸어오
가왕
굴레
유성구
ESS
파일럿
설치류
##슬라비아
중식
줘도
클라크
한울
의미심장
엄연히
##산맥
국민대
하여간
##변이
아랍어
xxx
참판
수학여행
브레이
계책
치고
풀어
힘없이
악물
##멘스
##tian
백지화
값비싼
민박
대일
편식
누설
캐논
ㆍ부
생태학
민우
다이어리
정주영
유고슬라비아
몰이
반신
윤활
우화
국내선
Instit
김순
징역형
본고
쥬얼
향한다
폭격기
도의
학기제
##ret
황혼
평의회
스러우
장충
##유리
난치
난징
루카
리자
페미니스트
영일
부문장
조각가
타마
시공간
아련
퍼거슨
힌두교
살아오
이론가
제형
히브리
Im
##조치
충전기
샤넬
중학
봉황
군포시
슬라이드
##세웠
궁녀
Public
리브
횃불
##창수
##북면
오스카
팔짱
트리오
스팸
압둘
려는데
어지간
상냥
저놈
돌연변이
School
가느
실지
강연회
서프
1880
퍼펙트
##ca
얽매이
##칠리아
깡통
바오로
마왕
한신
윤정
일인
오아시스
서자
프레이
관영
던데요
정일
산양
##ating
직물
##못해
불태우
세터
참으
처칠
프런트
승기
복역
##ograp
시의
안다고
##케이드
사간
요셉
미관
프라자
안일
##urch
천호
뿌렸
##화질
관성
##그라드
빨랐
걸어야
어려워졌
탕수
##진로
천문대
지령
조재
조원대
도토리
타도
##비어
##ony
성난
짊어지
##근무
엔드
##29
녹록
국민카드
꽃다발
사들여
애절
캐서린
베라
구정
##에이티브
들르
반반
아즈
자임
##uch
천왕
속삭였
위세
대웅전
👍🏻
##스턴트
부가세
정혜
고위험
##타자
공공연
슬램
선발전
물어볼
##흐로
빌헬름
갱년기
늙은이
2600
낸드
말끔히
퇴직자
EL
버무
교문
라이터
브릿지
서지
데드
남겨진
##코비치
빗발
중첩
교부금
쏠쏠
도형
민트
족보
크리에이티브
Val
엄선
저우
염색체
리턴
245
구매력
상층
낙천
213
보듬
보수당
사모님
County
월경
##페르
바야흐로
냉혹
후진타오
##일기
226
니콜라
##암리
매달렸
##좌석
올림피아
이낙연
##tm
지나쳐
중흥
도망쳤
##박사
실망감
가인
박광
팔뚝
Inc
브로드밴드
경대
의총
##택시
경은
수려
무턱
ㆍ신
고성군
톰슨
모어
동국제강
난자
에반
##아트
양정
##버시
근거지
형이상
##하이머
주례
인스턴트
호리
##led
정치권력
요충지
##무새
생쥐
시제품
타령
##크로
싸워야
##글리
인천광역시
보스니아
##특별자치
물거품
이끼
##ople
곤경
##리사
##케이크
게르만
##수무책
모면
pe
속수무책
##훼손
노크
기갑
##특별자치도
블라인
윗부분
페널티킥
참외
##ael
##노부
끈질긴
매겨
신격
사려
채점
위아래
준영
맞아떨
##학생회
good
옥천
된장찌개
제주특별자치도
고프
간간이
입혔
내려지
격퇴
발진
미국식
공터
삼월
방파
수온
조목
강유
데크
##ft
욕조
분석가
##자동
가톨릭교회
회비
한국일보
##mann
조선왕조
유통망
강호동
원기
저건
풀뿌리
양용
투숙
교통량
우지
이웃집
적십자사
노니
산사태
총학생회
임상시험
다녀야
긴밀히
##ulture
원생
one
캔디
신지애
요양원
영영
##길이
생산력
분만
펠리
##스타일
최강희
국제축구연맹
안과
외세
쥐어
울분
산간
##하하
##hel
대놓고
스콘
앤서니
##열차
검문
오수
서바이벌
##EN
둘레길
제이슨
국소
스콜
억대
입소
무표
부풀려
재경
김부겸
케임브리지
이을
묻힌
난립
##oft
콤팩트
방광
이끌려
리허설
정변
Work
불어나
##테이
신중히
강석
보내왔
보문
종교인
275
경호원
명곡
리필
##세우스
대형주
결석
격투기
내추
올려서
상민
후견
탈레반
떨렸
야전
걸어왔
벌크
갑작스러운
걸으며
속살
응집
점원
특파원
구룡
문호
한승
달리기
2800
빈티지
승복
챙겨야
조공
광활
Li
간곡
##very
선례
해시
출산율
겨를
사다
##ave
마장
벤트
단행본
이에
쫓아내
서상
스트리밍
걸어온
겉보기
결장
급박
장성택
맛난
안젤
Can
정운찬
ㆍ한
950
성취감
투하
##랭이
크라이슬러
예멘
끈적
놓쳐
마모
응대
찬찬히
구구
개천
##문트
되짚
자연주의
증권가
명기
성동구
레비
오존
##연수원
구도심
고승
##ful
직함
특조
Ber
우빈
##irl
송아지
원청
결손
GN
허비
스노우
재팬
뒷걸음
##로호
미래형
아래층
##가드
##ross
방도
황색
홍길동
자유자재
리트
참회
오우
프라이버시
전년도
고은
##튀김
보통학교
소형차
떠오를
짝사랑
독촉
라지만
랠리
나온다고
530
##대간
새싹
브라더스
날렵
도하
복습
이맘
알찬
문화사
이삭
##화가
##비슷
장전
조소
##댕이
사립대
##만큼
저널리스트
라즈
##군데
##수도
##티모어
견줘
쿠르
무학
최윤
잔존
아까운
Reg
거침없
머리칼
게장
방아
자물
어울림
상영관
부평구
720
매미
##공개
전산망
##코트
내추럴
가변
백두대간
Day
누명
명맥
하정
자기장
THE
실루
390
섞이
막장
##막염
유체
도상
뭉클
혁명가
보라색
껑충
부연
북위
화훼
폄하
Green
##티티
론스타
섭씨
이코
세라믹
스타킹
수전
중환
감액
밥그릇
봉안
이안
##트리올
니당
아삭
##정사실
기정사실
화강
몬트리올
장서
등록증
광동
노바
평화상
난데
명태
대수롭
부쳐
숭실
고약
희비
개소식
##48
레크
싸인
조선대
접합
정품
##신보
중기청
읽히
301
케리
브리티시
한하
휘감
명당
전기금
지사장
특선
행정소송
MRI
뒤졌
모레
잉태
바싹
동양인
피켓
진짜로
완구
기복
223
쿠페
대기실
성북구
외연
최병
##its
프리랜
거렸
본원
##유국
봉수
재가동
꿋꿋
차도
잡아가
판독
명예훼손
##캉스
슬라이더
전근
팝업
양평군
정치국
비스듬
외쳐
펴냈
Cont
##르륵
뒷좌석
홍진
드실
스파게티
바캉스
고현
타우
##일비
양방향
강현
지원서
두리번
베니스
##론자
엇갈린
은닉
정해졌
영통
차곡
이어주
낱낱이
감칠
뒤틀
뒷산
순정
정윤
정성껏
토요타
도안
##메드
GC
##시브
강팀
기요
ATM
시무
동그랗
오색
자화상
가업
펑펑
매점
자몽
남동구
산둥
공모주
##apan
이구
위약
타사
체득
지도층
러시아어
칙칙
풍류
##43
하중
노라면
흑색
북동부
##89
난해
성체
연제
##올리
문제집
은빛
본청
##광장
강산
##학파
수출국
줄리아
국무총리실
타국
양가
정두
고인돌
몰수
연봉제
괴산
직사
심오
불러올
볼티모어
행정학
신드롬
##ship
여장
혼잣말
##워즈
도원
##스태프
구설
호로
모나코
동떨어진
진통제
##MP
노숙인
금융업
뜬금
Em
부적격
꽂혀
파마
How
빌어먹
소프라노
선취
민지
노점상
엉엉
완충
##체능
min
마천
##마치
어쨌거나
백억
빡빡
돌아선
ㆍ제
샐러리
두른
억누르
##구려
변속기
조끼
독한
##패스
분홍색
수공
피임
블라인드
팔레
##토르
밑그림
방공
근무자
지천
총력전
천정배
경각심
찾아온다
공시지가
질질
서기관
##unication
겉모습
병아리
챔프
예정지
수탈
Poli
펴냄
피조물
설리
할로
은행나무
디딤돌
리크
217
무서웠
덮인
##히드
도배
고려인
처박
##다툼
To
##워스
급성
독립군
블로킹
정찬
교과목
붉은색
쟁쟁
now
Assoc
지나칠
락할
골밑
압승
유업
##나귀
만사
베니
비늘
성완
휘둘러
필수품
올려놓
툭툭
얼마간
나눠서
##ana
유학자
PL
City
Mich
##46
시럽
여하튼
Korean
두개골
되살아
고증
체험학습
거버
용두
댄다
평촌
피상
이항
스탠퍼드
획관
크리스탈
흥국생명
사회봉사
##공격
2700
루스벨트
가로수길
잡힐
간질
##우회
잘려
##OL
알렉산드리아
유식
능히
던전
도련
귀촌
피시
안토니오
귀순
##라드
##42
무함
무르익
위나라
자랄
##만두
부전
포탈
브룩
코칭스태프
다기
희한
비닐하우스
오롯
연남동
##민정
강릉시
Pre
##일레븐
구문
임성
##TT
God
민경
이동식
이씨
징조
##urg
실외
장마철
수두
기다림
색조
혼례
보헤
끼여
RC
마닐라
총애
지훈
도축
Art
황량
새내기
묵시
염상
차우
만석
삼청
Time
##alt
마신다
암스
1884
내야수
스푼
보약
we
열심
TC
허드
게나
동심
##느질
660
깨뜨리
이반
세계유산
고달
최원
대장군
##여왕
망설임
열의
전관
화나
견주
보사
막대기
갈라진
아기자기
상병
엇갈렸
스스
사법연수원
그네
떨림
활기찬
고주
간청
##ied
살림살이
분뇨
팔상
발자취
Trans
반월
선크림
지껄
임관
간통
극성
카리브
가발
##콰도르
##tim
불어오
##데자
알아냈
##미야
끌어올릴
진천
560
선착장
생업
배재
교만
미온
##적ㆍ
##데자네이
선서
홈구장
노아
##★★
진보당
테리
으랴
합한
신령
스크랩
풍조
소말리아
배짱
##네이터
제보자
두려웠
사돈
예속
홍보물
유아기
에콰도르
좌초
후세인
디비전
##RC
봇물
가용
읍성
장재
하한
자위대
승산
##벤처
등반
227
김진표
ECB
official
목구멍
참새
토스트
상류층
바그너
프리랜서
때린
##그로
눈부시
오노
베네딕
속셈
직설
찰떡
복음서
기무사
##소니
밋밋
아우성
일리노이
성완종
구획
랭크
##47
마그네슘
차단제
씌워
익혔
세븐일레븐
살인범
리포터
주영
덮밥
한의사
##otd
관중석
정량
환절기
##oung
아실
ㆍ사
눈살
김상곤
성신
내력
Christ
고참
가꿔
바르트
예체능
##PI
일회성
가한
상한선
대학원생
첨가물
저버리
ㆍ시
톈진
##개혁
##능력
추도
데니스
항거
Law
하이트진로
카누
공공시설
로마인
솟구
가정폭력
물으
구심점
버팀목
##차곡
차곡차곡
뉴딜
응시자
그이
왕관
장막
승강기
##be
##집행
신해
##ICE
통기
도망쳐
BNK
자란다
장경
줄무늬
다이묘
배고프
당나귀
TPP
공여
저온
전단지
##로로
##다이스
포도당
동족
와카
젓갈
굴비
루나
우렁
획단
##폴리
수치심
골라서
마츠
사대
여래
그레고리
단도
두만
쓰촨
540
쓸모없
##데자네이루
던가요
레오나르도
부랴
##요금
돌려보내
리우데자네이루
옹진군
요로
정청
##티넨
침식
알리바바
김광석
궁예
뿜어내
##라는
유사시
감회
뚝뚝
대관령
카사
피셔
중엽
질린
##연재
Business
사무장
대각
천신
재야
속인
##저럭
끌리
문제삼
전체주의
경원
##라이어티
##코지
올라타
추징
시료
황재
오명
임야
바로크
김유정
히든
가져갈
배석
혼혈
당수
겨누
라거나
깃들
분쇄
##꼬박
미자
으쓱
묵살
##럭저럭
김재철
꼬박꼬박
날뛰
버라이어티
대별
최동
##고시
이민호
노년층
통신부
노보
묻어나
제패
토미
오랑캐
에비
##치오
##렉트
볼리비아
KC
데요
##86
눈꺼풀
메라
빤히
특단
퇴색
한구석
빗대
유휴
덕택
변태
안드레아
없앨
##for
아수라
미제
거위
앞부분
##cal
엄밀히
손주
무화
쑥쑥
유랑
동년
걷잡
실루엣
패하
골다
농경지
공의회
일군
힘주
연우
가린
홀드
##ular
종점
마운트
변종
BT
암묵
충성심
가물
행정력
Management
Research
명주
아역
원색
태영
##성대
##나간
can
괄목
기웃
뻣뻣
흔들릴
판가
백설
여서는
1860
진에어
변변
오영
징크스
달랑
백범
모아야
환호성
칠곡군
읍니다
사미
이제껏
구기
##SI
인솔
차상
자유형
홍영
알아본다
외제
감청
단초
##회관
기다린
work
송승
축축
기표
막무
아미타
고군분투
나직
##블러
이상민
제언
##시안
법전
늘어선
약제
징병
다시마
막무가내
말단
볼턴
져요
원세훈
무표정
앙코르
##드래
##보호
구전
유타
은둔
주세
클라라
쫀득
정설
CMA
부산물
스프레이
동창회
##렌스
246
발췌
에리
##버리지
무용지물
자물쇠
Win
두드렸
목수
방랑
포병
블러
심청
##96
최고점
1870
미일
삼거리
용선
이춘
sub
오즈
격하
##농사
앉히
von
치수
호우
환각
펄펄
##rip
프로토콜
미트
##els
위스
나일
맘껏
##라치
인사동
FDA
말렸
끓인
헛되
체지방
풍년
허우
오두막
돈벌이
총명
##뛰기
일률
윤지
##모닝
지하실
초미세
자장
치이
##거래소
Cap
행진곡
동진
레포츠
진두
##준혁
백과사전
탕수육
북상
선악
자폐
맞춰야
톱스타
제각기
떠맡
날아다니
칸막이
총선거
아악
지난날
우도
처남
돌아다녔
윈드
자며
돌변
통쾌
하염
오미자
##ara
rep
은평구
난다고
무혐
유급
##칠성
255
추징금
튕겨
##덤핑
비키니
구겨
문답
지퍼
후발
모름
여념
창녀
무궁무진
주눅
피처
미나리
백마
잠그
그만둔
##ㅋㅋㅋㅋㅋ
예찬
옵티
키프
##네트
겨드
안대
정유라
얌전
폐위
마르코
유림
혈전
철분
##덴티티
씨씨
##저가
노루
들뜬
아이덴티티
더라는
외장
오릭스
합쳐서
##티움
차후
##국사
아꼈
개발비
##투아니아
총출
풋볼
Pri
탄약
나옴
승수
##산지
더한다
모함
##41
묘미
박유
흡족
파라다이스
여백
벨리
에베
입담
바닐라
반덤핑
보로
맞이해
하수도
굴착
심할
스포츠카
거미줄
선녀
HA
Fri
레퍼
김치찌개
하얀색
발기인
열병
파면
##uty
##퍼슨
성황리
고화질
굿모닝
불감
소피
제복
홍차
매스컴
동고
##두부
배상금
##앙스
리투아니아
로드리
안내문
셔틀버스
남중국해
도태
비자금
씨발
제쳐
강단
유종
자양
가비
킬로그램
형질
Die
선망
##캐스트
건강식
232
독과점
양기
##우라
##83
특정인
구단주
특산품
로직스
vol
미운
GW
동위
비열
철강업
채굴
221
나래
뱀파이어
바트
증산
드로잉
광택
서스
트램
하영
러시아인
형이상학
DA
일색
카펫
##셰비
템포
특임
##ien
푸른색
튀어나오
브래드
로렌스
##규어
웅변
무함마드
산은
마술사
드리워
김봉
정근
불모
난동
##무역
예고편
단아
상근
개탄
보합
History
굳혔
High
Center
대들
뒤엎
트래픽
낯익
우편물
아로마
영결
배웅
기껏해야
관원
투박
암각
해병
장녀
신년사
오도
학내
안전장치
써니
NYT
면죄
다이렉트
걸프
산속
생산물
우림
가점
메이트
터트리
속삭이
주치의
저질러
한계선
기전
요크
하키
265
게으름
JS
기관총
조진
슬로바키아
용모
##제한
조미료
급선무
화이
가르시아
북항
인도인
버젓
##na
리니
매개체
##라이언트
강병
적외선
히메
교관
절상
정순
대양
내막
민노총
부원
등부
굳건히
##ju
군데군데
설전
말살
가브리엘
이서
로베르
##부들
고쳤
준용
클라이언트
학연
배부르
신태용
음직
##라이즈
##모닉
베이지
달라서
외야
채집
##선언
플루토
부화
올가
틈타
황성
앤드루
통나무
묶음
닐슨
할증
조각상
본의
반대파
사이먼
RP
Science
몰아가
##폴트
쟁의
시간표
패기
##ury
테마주
무개
경동
면직
##72
애드
질까
##더라
Tel
봉해졌
부잣집
시녀
쌓였
연합국
첫눈
달아오르
트레인
난로
성냥
액화
원주시
해안선
칭기즈
감칠맛
반란군
동주
사르트르
송영길
##ica
큐레이터
평탄
취약점
다면서요
용의
212
삼위
면사
##이면
협곡
부르크
이걸로
쇼군
##주니어
향방
베르디
늘어지
민들레
온종일
임자
되살아나
온수
오래가
선불
실권
모자란
저기압
박창
##채기
233
후진국
리퍼
구축함
구걸
완패
부러움
수사학
일깨우
맘대로
되돌리
취량
떠올릴
수증기
졸속
fe
가천
정감
유념
급상승
병리
##당초
타계
연극제
기공식
졌으나
푸념
삼성전기
숙인
아람
청렴도
진드기
은밀히
라이너
도용
211
경무
##토시
필하모닉
대마도
us
병조
맞물리
##보스
레퍼토리
Act
##82
DGB
캔자스
헐리
깜박
##97
뉘앙스
발트
시발점
광진구
전멸
##호테
감사관
난다는
몸체
묘비
연지
##스토크
Fe
대뜸
##보감
보시
##정신
엄지손가락
sm
부역
해금
##공증
비기
역적
재규어
한남
##eck
##언정
김정남
##반짝
구속력
몰릴
스텐
테헤
##92
콧물
그랬었
싸구려
일동
뒤이
핏줄
##킨슨
도넛
대산
수재
Te
폴크스
프란체
총출동
담사
손연재
##뜨린다
붙잡혀
거제시
##ino
시미
일문
컨셉트
부들부들
반짝반짝
##chen
감염자
ㆍ국
설움
이근호
레미콘
지냈으며
전우
입법부
소방차
나른
##81
기본급
들이마
레이다
명창
형세
슈퍼주니어
POP
감가
렌트
애환
내세울
드셨
승전
단일팀
골다공증
받치
바느질
쉬웠
김신욱
난쟁이
부락
초년
삼위일체
캐럴
time
그란
딸린
성시
Class
알바니아
PV
##다리기
찔렀
놀라울
긍지
##뚝뚝
지녀
식물원
빼앗겼
성모병원
백자
##93
비꼬
외도
히라
합숙
환관
원활히
속죄
##펜하
Wil
경축
##icy
박헌영
바빠서
카네기
권리금
작인
흥정
410
Tim
와이프
선험
에바
저어
팔다리
물으면
피해액
ㆍ재
응원단
전자기
주황
테헤란
남겨둔
퀄컴
ER
라디
만수
##네임
중저가
하시
##MI
##ington
비바람
에디슨
도시바
470
그럭저럭
##드래곤
엽기
제정신
선동열
브루스
풀타임
##샤바
야구단
XX
대머리
과도기
유의미
속박
중사
인천대
관아
진시황
따질
##98
파괴력
귀추
산도
무뚝뚝
상대식
호시
혹평
##애플
다비
도인
##카라
##변속기
충신
서툴
##네시
your
승상
작중
버마
후끈
실에
바라봤
8500
정상회의
거늘
그리워하
잔디밭
홍석
구라
Mac
태동
##집합
후반전
수천억
뭉친
뼈아
향신
달라요
격식
난생
하인리히
박신
깃든
근면
##시아드
##가타
맞춰져
유산소
Mart
##자식
육감
노부나가
도예
막중
불임
출고가
변조
유니버시아드
장밋
배고픔
힘썼
⠀⠀⠀⠀
메시아
정구
날치기
절경
##께요
갈라져
치료사
줄다리기
벌판
이태리
서청
이비
풀무원
현자
농기계
불합
지동원
##문예
거리낌
밝혀냈
1885
소닉
허리띠
합법화
바리스타
##omen
태화강
천차
편협
##슐리
미술사
동화책
##샅이
거느린
샅샅이
##다닐
울컥
후사
KAI
대여섯
주검
카니발
system
뒤엉
시효
휴학
아만
남친
데이브
뽀뽀
근속
문중
엊그
호족
##우옌
관찰자
천수
간대
강민호
우치
수화
귀양
전열
해짐
##문화회관
청량리
투게
양념장
중문
관리사
##모자
김근
석좌
RF
Red
레터
재력
ISA
제회
프리킥
일기장
##타니
콜럼버스
우버
현기증
거만
셨잖아요
칼빈
강태
해줘
원비
캐디
몽둥이
치러졌
볼펜
연암
전언
군관
##꼭지
세종문화회관
PEF
판별
팬클럽
유품
##방위
준공식
소지자
절기
결전
귀퉁이
##린트
지배인
돋우
애타
업로드
##조부
Bu
Up
##71
피부염
어벤져
북아프리카
세태
처마
원희
투게더
Black
암초
도라지
유니온
에어백
기어이
터뜨린
빈혈
아보카도
요구르트
NBC
캐스트
아니한다
##수범
임창용
본디
##타로
의견서
예선전
##니안
스니
정략
권위자
각축
난색
Service
낚싯
##바오
문종
앞길
##에프
3200
게임기
잠자코
##개미
레온
교부세
벌렸
##79
군기
소추
청소년기
열혈
##ffect
들락
쿠르드
유목민
##ridge
대연
짤막
##ities
랴오
라자
응수
우리말
셰일
하임
##amil
라고도
호사
반품
지칠
##치즈
모국어
소드
인들
창세기
##gan
두레
라파엘
대적
들린
리카
출렁
sel
서병수
Mag
세용
상한가
석고
도운
##31
##맥주
대경
미개
중성자
메소
목화
도미노
귀걸이
빙판
##퍼레이션
항균
신랄
티브이
선심
친형
한샘
모라
보살피
돼왔
##노버
조니
##파람
매서운
매표
똑똑히
다나카
진경
##분자
조직법
비틀거리
학관
##두고
그럴듯
만지작
간극
백석
학당
##맥상
그러고
##제비
##합성
숙취
영희
짝퉁
피보험자
만화책
부릅
함흥
포장마차
Id
의술
육안
##티나무
##유진
황진
직간접
##EX
어드벤처
시끄러운
정평
결탁
블랑
친수
수업료
연습생
휩싸인
##클로
성악가
##49
야자
찻잔
AFP
노모
페라
##어머니
##36
##선지
대혁명
코스모스
이주노
##셈부르크
와이번스
국판
어의
중의원
본다고
선선
황희
장판
다쳐
당헌
헤게
노역
수잔
파노
발끈
소릴
터트렸
IV
뽑히
유혈
##orge
Str
##냉면
Air
서핑
해동
바를
윤동주
##소시효
Thomas
문지
##스토이
Sim
식전
깔깔
최수
곡인
난사
보국
월터
빨치산
감식
##보증기금
교권
드립
석굴
카톨릭
덩이
억새
서양인
공소시효
맨발
##anian
##ological
헌데
용문
차분히
시그널
개포
위증
##두근
단시간
절절
종소리
##스트로
인품
버럭
회계사
##ucation
동장
다이노스
섭정
남하
원제
신춘문예
흐흐
괴담
구보
##상의
김구라
ref
마의
튀기
후원회
프라이빗
컨테이너선
룩셈부르크
have
전곡
느티나무
두고
대운
무릇
WWE
눈감
주경
Colle
조석
무턱대
맥아더
보호관
현상학
무서워서
블럭
##way
##랑스
222
호실
##37
박연차
그람
나로호
인도주의
삼켰
하역
ro
가군
봉산
잠입
this
하염없이
낙양
오더
옷감
대서양
무적
리디아
베른
특공대
Ibid
단자
신승
##펜하겐
리우스
최명
##작전
##넌스
소대
로저스
호찌
용해
진피
##연설
##고생
##ux
##PR
다림
##부랴
##다랗
계략
코펜하겐
끼쳐
##바라지
네임
레버리지
원반
태반
튀니지
##용지
Park
차주
중퇴
도나
밀려오
뒷문
소다
패거리
At
쟁탈
예비역
보살펴
##eek
두고두고
만유
사격장
공예품
북서부
자의식
타리
벌어들인
괜한
도사리
Mo
돌담
##구조
고품격
디제이
설계도
노량진
##87
3600
암각화
도금
입항
솔선수범
목덜미
고용주
기네스
차감
헤게모니
별빛
연개
236
무협
쏠린다
나올지
영화인
##iter
3300
저작권
풍족
힐스
##장난
타스
##IL
다라
뱃살
리사
##bps
미술가
장밋빛
580
판본
샴페인
##랑드
베이직
Ap
성찬
잠금
근거리
멘탈
성관
오뚜기
양식장
강림
금치
이부
##사관학교
황영
VOD
수행자
부랴부랴
채광
Cons
##메이카
자판기
과수원
국인
괴롭혔
ootd
상대편
으루
걸음걸이
새댁
신경증
유미
가속도
식자재
사단장
산삼
##ki
가차
각양
어서요
천박
##저축
Bas
다던
아브
선거일
##신기
김관용
매끄러운
호러
어설픈
장생
살펴야
##iki
그윽
주막
고사리
그리구
내겐
머슴
car
학예
헌터
우선주
동대문구
꽃게
앞머리
##wo
##믹스
넘어오
꼭꼭
벼룩
비좁
걸려서
동갑내기
최전방
테너
──
떨어뜨렸
광구
부경
서평
엠마
##91
##겨워
부풀리
느껴져
##복지
주체사상
농수산
ㆍ외
나성
였었
##HA
연발
##양이
##카쿠
고딕
순교자
노상
조반
지현
음란물
##76
고농
거스르
역류
현아
Mic
벡스코
부러진
시월
엄연
희열
임해
헛된
준거
##선미
마르셀
무턱대고
ㆍ지
모자이크
이름난
성운
들이받
면죄부
민화
백발
갑작스레
정갈
따돌림
주먹밥
보청
비노
해안가
간사인
##hys
특수강
도량
미노
Society
갇히
골대
조강
분수령
유경
거버넌스
레아
요점
gre
갓난
빚어진
재의
브뤼셀
산다고
황보
제설
할게
##부지
운동화
벅찬
이바
장실
개회식
워런
##시고
부딪쳐
시사점
무인기
뒤섞여
##84
새로움
상트
콘도
아소
들어올리
국빈
##발력
대자
본전
힐튼
멸시
이카
김상현
공실
담자
##eting
복합체
굶주림
##etter
빈손
초고속
풀밭
##ham
으르
튜닝
##32
금화
소포
김주성
그랜트
바이크
움찔
가느다란
pre
루키
양강
적기
출연료
##outh
광년
자메이카
괴롭힘
발명품
심히
사문
소회
분간
달려와
순발력
주전자
휘두
새하
난도
교통비
나이스
전재
금하
협력체
인스
일변
강화군
독서실
잇따랐
귀금속
사납
싱그
금메달리스트
리부
##다닥
##걸스
넘쳤
다마
장화
외딴
초식
치세
빈센트
알려야
녹이
톨스토이
단신
러블리
일회용
##78
##동아
집념
픽션
##수소
부드러움
암스테르담
한민
두만강
미혼모
웅크리
말뚝
셀러
신창
조바
격자
수렁
밀레니엄
등본
소연
교육법
듀스
번들
켜졌
스타인
장진
1882
카이로
들떠
원외
##심판
곶감
진흥회
정보국
640
맛없
이븐
진입로
후천
상속인
전미
총국
찾아갈
만취
수복
하승
다이내
수액
두드러진다
##비안
##카미
따끈
비거리
아전
사그라
도로변
김두한
사나운
인기몰이
을지로
등산객
파인애플
디디
so
라스트
뻔히
모델링
뛰어가
간만
자분
##대왕
010
쾌속
군국
위층
드넓
수경
##특위
전유물
판화
##백산
신사동
석양
제원
창덕
##약청
웨인
부딪혔
손잡고
TOP
Jos
가속기
325
폭등
시그마
히가시
표준어
##프레소
제프리
찬미
해로운
통일성
습니당
터빈
피오
서연
박하
##주머니
지켜봐
현주소
시온
응우옌
관악구
슈가
시칠리아
##에고
로제
푸코
##NT
##만별
##omeranian
비스트
하오
어벤져스
천차만별
들키
##94
빼돌린
자조
집집
논거
동작구
codice
1883
pomeranian
285
하이테크
객원
권투
Top
카타
험악
연주가
다이나
수라
어긋난
##장각
부어
##페테르부르크
형주
##사의
고열
하태
마르틴
조인성
애경
쟁반
현정
식약청
억눌
폴로
리언
사칭
홍역
충무로
상트페테르부르크
시큰
버젓이
교신
합니다만
재정난
최남
##특구
NFC
지배했
호주머니
##금고
##아프리카
요구사항
동적
루니
##카메라
따라갔
주소지
위약금
허균
후판
##ode
상담원
##섬유
단념
##단다
부질
방바닥
음대
창안
토박이
건방
악법
##원회
인피니티
따졌
박살
305
mon
오산시
꾸러미
무참
방호
살벌
수니
실학
##캐롤
피닉스
생리학
##부아르
불러일으킬
가창력
깨졌
재추
기조연설
루트비히
나락
중서
토했
LTV
임지
학제
부대시설
그레이트
##ipp
광안리
전면전
고마웠
Sam
DI
썰렁
Richard
맞춘다
장하
리니지
임했
##73
다신
디비
분립
쌍방향
김옥균
cit
##셰비키
간수
플렉스
러쉬
튀겨
Development
번호판
슬러
우미
기괴
청천
마님
신파
우르르
필라테스
##캐롤라이나
정철
망가지
계셔
고분군
황인
UF
조찬
폭발물
라벤
성조
하르
##min
사과문
##히코
탐사선
프레스센터
작업자
기지국
바바
천거
해부학
벌거벗
희망퇴직
적료
소위원회
주무관
함장
고려사
안이
운동량
##제한구역
수족관
##vern
전지현
무방비
건달
투자액
ev
기민
##여객
##망울
##ffee
해밀턴
##ero
공매
사헌
##호우
이승기
피노
기나
창조성
목공
헤어져
물든
시끌
몸뚱이
So
송곳
USA
상조
WM
2050
골머리
##each
##평동
어버이날
휘파람
전자레인지
ON
우후
소방대
유분
개발제한구역
1871
드라이빙
사선
이겨야
안다는
Kar
산티아
즐긴
부릴
야스쿠니
거림
시아버지
##나갈
파수
나아질
AA
##른자
불붙
페로
폭소
아녀
데미
##ible
중심축
고아원
##교차
칠판
신비주의
내무부
맞설
숙고
신다는
안위
앙드레
마롱
바벨
이통
학명
##미술
##공산당
영해
##진다면
예단
가중치
청년회
완비
포메라
자평
짓눌
퍼진
살아날
영자
고의로
에워싸
나침
덜컥
선데이
헬레
##erc
척척
쿠퍼
현감
현충원
제노
추사
치달
후각
밀실
제퍼슨
카세
해장국
근저당
먹히
에우
철거민
##AAD
녹색당
천변
##day
이종걸
구대
체인점
플롯
잔다
답습
버스터
소탕
유정복
판가름
오솔
보청기
기혼
##통신
다인
정진석
상징물
향긋
집중호우
##각각
타이탄
핍박
현지인
데이빗
궤적
총칭
##이조
막힐
교활
냉담
빠듯
얽히
imp
살펴봐야
서안
세도
비잔티움
탄다
향신료
김응
어장
##ㅌㅌ
눈덩이
말다툼
리모컨
YS
밤샘
##instagram
도농
취사
담아낸
토핑
##74
##토모
사헌부
깜찍
평신
##조목
##65
한국식
마을금고
반목
##자니아
흡연자
순자
물러섰
집권당
관능
생도
진두지휘
강재
환대
mar
가교
반말
출판물
MT
복병
알프레
을사
각양각색
조나라
브로드웨이
커넥
호치
나부
상아
천일염
쏟아부
순국
##등기
플래너
친밀감
자장면
축구팀
영결식
길잡이
증류
홍어
알아차렸
미행
번졌
바젤
팔달
3800
건너갔
거역
이찬
탈루
오클랜드
결투
##와라
오르막
앞선다
한국개발
산티아고
닫히
숨길
강탈
전해진
##34
##간다는
What
층간
공성
요강
혼전
코믹스
역삼동
##line
##룽지
비상사태
오재
우성
인더스
##포도
북조선
한낱
가네
세바
불가결
한낮
지리학
이맘때
독살
##마사
도전자
조용필
예종
동북아시아
Mor
합헌
전모
기독교인
심연
날아들
dogstagram
도제
빵빵
BG
불현
##제과
고노
시시각각
번트
서킷
Star
요람
총탄
라이브러리
설상가
##메이트
동그란
국방위원회
김종필
장주
종군
##기술센터
hom
설상가상
헷갈리
타임즈
지평선
기막힌
고명
닥칠
감산
부국
부총
신칸
언약
##ko
생육
수부
동서양
엊그제
최준
무등산
RS
대견
공연히
미야자키
아나키
실력자
미지급
오솔길
써먹
바르샤바
식견
잔고
United
통솔
윤상현
꿈꾼
익살
짐짓
부마
호령
월화드라마
##ㅠㅠㅠㅠㅠㅠㅠㅠ
교착
언저리
누리집
배신감
##스코트
설파
은영
산기
실추
직진
1889
에볼라
안영
한답니다
가르친다
께선
형부
다거나
흩어진
##러울
농업기술센터
수취
이케아
지피
과민
다빈
낙찰가
동의서
작심
##38
과수
음악인
공장장
휩싸여
역전패
관서
정봉
대구대
싫증
호크
조광조
검소
댄서
픽업
##무네
걸터
##부르
달아난
북아일랜드
여소
최고령
##내티
휩쓸려
류승
##orts
송두리
THAAD
막사
병무
친히
따라갈
언론계
Power
족장
크리스천
등기부
압박감
애국가
Europe
재빠르
htm
너지
성행위
김유신
발칸
칭다오
가우
Review
서스펜
매니아
차창
알콜
서청원
팔라
광주은행
상궁
장항
##버둥
헤아려
부종
항고
훈계
##상조
한국개발연구원
Camb
잿빛
저수
우익수
라트비아
신구
이뤄냈
영재교육
델리
범한
자켓
정공
Human
골칫
##소설
종부
참작
##세계
고용부
산중
피폐
그리곤
Cre
APEC
슬리퍼
##ration
물산
버텼
초전
이병철
명암
양희
온정
장준
아닐지
울상
연출자
부도덕
로구나
대상지
파라오
travel
화학제품
신시내티
참나무
시우
옆면
네온
닭발
218
특허청
휘말리
도가니
부귀
로그인
이주영
컷오프
꼬리표
오행
포천시
238
위용
인디애나
##사이클
대표부
석연
##olf
묻혔
초입
징검
박성현
Mnet
행주
Best
다가섰
연합뉴스
베드로
줄기차
조여
광양제철
천시
로테이션
삼중
순리
윗사람
교보생명
근소
떠다니
넥스트
기나긴
칠성
##RE
붙여서
덕수궁
경내
골몰
고쳐야
왕릉
과속
근방
얼떨
홈피
별일
조셉
##좌왕
##가방
투혼
급식비
경외
우왕좌왕
방미
##내린
몰려오
##장이
한국학
군량
프린스
엘레
데뷔작
경포
##콜리
##ney
리차
##유업
남이
원거리
바꿔서
로이드
일석이조
금관
다각도
RA
리거
Hol
루이지
불감증
장유
장량
에스토
윤재
231
북송
프로테
김제동
Michael
미토
는지라
구로구
기름진
견적
금과
기를
전편
차르
해충
토론자
분파
다를까
아다
Ben
밀려났
애스타
혼재
둥둥
문방
심술
준장
비엔나
타이베이
CV
Lo
가져온다
손대
석류
리마
전갈
흥겨운
히타
##bl
1850
히로시
내색
환경청
안함
성안
허준
훔쳤
잠재우
미망
발버둥
숙면
집게
foodporn
유임
광고비
페퍼
##uel
투표율
##레드
MMOR
작아지
코리
##ures
능통
당락
오거
WTI
대흥
불현듯
냉기
치환
트리트
중견수
코스트코
##민석
취재원
파스칼
부주석
해골
이뤄낸
다케다
삼켜
할매
택할
##돈나
광주광역시
비야
영사관
민가
의정서
개강
수렵
포니
##uf
Paris
안달
한남동
경계심
황금빛
RT
She
편안히
OO
감촉
##자산
어렴풋이
역관
Out
고된
인어
극치
애벌레
필적
직권상정
위도
제르
최애
##리니스트
장한
송지
천태
##장성
바이올리니스트
상보
서가
정색
하동군
570
무겸
남양유업
지영
효모
생각난다
망했
문안
우레
황룡
##aum
거름
준비물
할래
##탄올
Fin
붐비
산실
Ox
이롭
시현
##rich
트레이딩
MMORPG
꾸렸
얻어먹
오트
##하시
조던
##투합
##둘렀
금값
출금
선단
키운다
노프
손꼽힌다
상연
애당초
의기투합
Dem
원은
최루
럭키
숨긴
수용체
꼬막
노동청
먹구름
파사
장상
노여
외워
정각
복통
##쿠젠
처단
##개토
##베니아
상대국
명성황후
박진영
RNA
에이지
조선조
백종원
포브스
Gener
판권
##구르
불쾌감
##차별
한텐
NSC
체장
##방아
두텁
올랐으며
빠져나간
특례법
소산
광개토
역자
코피
##축구협회
내미
마수
거문고
회심
##투어
주안점
아과
보름달
겸한
흉악
송광
장석
어사
틴트
왕십리
합의서
264
다간
다이얼
지민
##원숭이
##rib
알카
고사하고
미룰
##oe
전환기
미역국
##고스
경의선
시노
무허가
흘러들
나침반
손맛
투지
모바일게임
굴지
대한축구협회
오물
광무
래리
안내판
슬로베니아
##kin
달라져
Hen
상주시
아휴
나빴
을지라도
무가
죄의식
##거릴
양승태
얼큰
알아채
윈터
은어
매수인
##LC
대구은행
##ule
에스토니아
느릿
논리학
결의문
프린스턴
장시
톱니
알칼리
체고
증감
격분
무정부
선승
운전대
파라과이
부차
갈리아
방기
##장어
싸여
##oman
경솔
세손
존치
뒷부분
수포
대조표
석부
일광
증손
Adv
요동치
루피
클러치
전야
해조류
##ura
안시
글러브
리원
굳어지
헌납
갑시다
다움
스로
315
연설문
다방면
##부산
미끄러져
근황
##플로
걸레
출두
##처치
독백
홀몸
승합
reg
주몽
신칸센
박순
임마
덕성
반바지
배회
심리전
색소폰
love
당귀
저금
ㆍ장
고기압
바비큐
부관
어정
급사
봉제
불합격
위니
영접
낭송
체대
##스름
고혈압
스낵
##저래
모기업
##바야
영생
##에너지
해운대구
더샵
한길
##67
황도
연금술
여포
이아
히스테
##계선
기니
코스타리카
애슐리
배불
송유
##파티
##에이고
뒤돌아보
Christian
뱃길
##디푸스
##페스트
뒷날
숙식
계몽주의
뒤로
추돌
헬싱
특질
삐걱
송중기
##스트리
눈치채
샌디에이고
전사자
출몰
코난
실탄
오이디푸스
##워프
로빈슨
홀대
움직여야
격언
에스티
징검다리
대합실
##63
들여오
건담
뚫려
냐구
도살
##gl
George
파커
홍성흔
instadaily
길들이
수산업
맛깔
##선다
정두언
유현
##플랜
##eauty
줄리엣
끊긴
호미
출범식
가라앉히
UV
나영
심취
조나
진과
Association
니즘
##게스
제시카
일단락
강영
회선
수목드라마
##얼빈
떠나가
포메라니안
##러워서
최규
마지못해
서둘러야
앉혀
토드
##조심
저울질
일거리
김천시
사무엘
의장단
일렉트릭
POS
크나
태양열
공소장
성교
##긍긍
다양체
예배당
노약
막국수
부다
##ilm
전전긍긍
과학관
##CN
척박
롯데카드
좋아해
유엔군
당무
염분
이베이
저스틴
영문학
들으니
지산
재작
본업
구한다
한수
배고픈
심포니
##rateg
김강
작품상
알아본
어려워질
⠀⠀⠀⠀⠀⠀⠀⠀⠀
테드
will
기지개
Frank
채워져
휴게실
일격
여행기
전초
걸스
둔치
도이
패트릭
낙찰자
Sal
##68
쏠렸
경험담
지켜온
폐차
##네즈
##스트럭
예지
포문
노정
##종합
하토
당산
요게
총사령관
짭짤
PH
노심
붙인다
예뻤
휴머니즘
Japan
럭비
비옥
설악
첫선
이한구
크림치즈
당주
개찰구
승부처
밀림
연거
폐광
찜질방
안종범
감마
ㆍ상
늘어진
좋아할
대타협
일용직
Dream
약서
혜안
##ets
GA
수도사
뛰어올랐
변두리
##IV
번주
따왔
글로브
끌어올려
메기
켤레
백남준
감춘
##호란
꽃가루
어유
지방채
전기동
바이저
기부자
꽃밭
##FL
Charles
모듬
혹자
##컬레이터
##거려
##용석
HO
담근
하얼빈
##치료
어가
##감사
Group
val
##헤이
개척자
팝콘
서유
##ense
이범호
틀어막
OCI
오갈
##에서
##달라
##장사
Af
부교
퇴역
수속
야영
오른팔
견인차
손쉬
알펜
조목조목
파프리카
마우
박미
에스컬레이터
라울
##트라이트
##체육회
##ush
귓가
사포
갈랐
다구요
입회
핸디
##홀름
최일
독학
추심
갖은
남동부
의경
##ao
##ari
510
천적
손아귀
목련
빗방울
어질
꼭두
순익
차려입
좌장
##물살
##쿼터스
어긴
Sw
예물
냐면은
급물살
아구
##스윙
##ulti
Psych
외동
신고자
심해졌
최치
푸조
추천서
황새
##브로
내비치
점장
224
화강암
##느러미
##츠하이머
불응
샤브
환멸
##지긋
가려움
찌푸렸
노른자
합금
레인보
##클라
##ental
경운
야겠다
SG
소영
체로
퀘스트
흥덕
##어가
345
모티프
옐로
기특
리히
만만찮
지긋지긋
도치
추앙
불러야
##une
역모
한자어
마고
반일
통영시
독설
준위
탕평
알츠하이머
풍산
ㆍ현
가토
민낯
빛내
생크림
지배층
조지프
유비쿼터스
역효과
위문
맹주
잘라서
섭렵
부단히
민혁
크나큰
송수
아흐
원로원
방전
솔솔
야크
##경궁
세출
630
금동
빅스
기름기
홍합
680
마키
막연히
타르트
발주자
눈여겨볼
교우
진단서
건조기
나쁠
월마트
논현동
걸터앉
기른
어플
취합
찾아와서
##스타인
선덕여왕
시킨다고
##ago
문관
초계
소방본부
해인사
대뇌
##ember
함경도
게이지
로미
저고리
서린
초판
피운
화정
구조주의
수강료
두꺼비
이가
기통
니키
붓다
배변
빙긋
학습지
갈기
순직
티코
무임
털썩
명령어
추장
합세
med
영속
피난처
미포
벼르
편집국장
남서부
경찰대
HE
든다는
배영
학식
형조
식음료
지론
##천면
219
mark
수갑
##탄두
돌린다
9900
조바심
이도
재청
여생
측정기
알로에
떠내려
해서라도
로사
살며시
##39
확성기
##61
난소
저속
오답
전리
##비오
방부
큰손
iOS
##시타
우사
##타카
서일본
##모더니즘
되새겨
혜원
을래
234
전반전
안녕히
경장
아재
육사
타악
창덕궁
뛰어드
##비엔
호이
AN
달마
뛴다
##기획
고여
디엠
조모
베가
젖소
##도그
공문서
동당
사진가
매트릭스
1893
##출혈
계모
나무라
탄원서
문지르
사실주의
흘러내렸
감출
독차
BIS
왔으니
배급사
UR
라바
천민
성인병
겐지
뒷바라지
종금
해준
##박자
부총재
꼬이
대야
센카쿠
경락
##들러
##혜영
십일
단호히
비합
##62
드라마틱
반원
알람
cy
탱고
앤드류
노릴
생모
##소싱
이뤄지기
국조
제제
여섯째
파헤쳐
플래카드
아부지
Ger
이상득
꿈속
진취
미대
##티넨탈
앙금
호구
중심가
부감
집어들
옥수
팻말
최문순
금광
자른
친문
최고가
대출자
나빠졌
문병
프라이드
쉬우
수석대표
미나미
자욱
상무부
논제
놀림
범퍼
백합
##샤브
자료집
전현
임진강
의용
진원지
FRB
주현
칼륨
통조림
관리원
사무직
WP
버려서
포교
무한히
목상
쇠락
홍순
##콘서트
아웃소싱
Met
지석
어플리케이션
따끔
허황
멱살
자아낸다
스파이더맨
필러
들썩이
반야
295
좌절감
과식
베버
헛소리
동승
위구르
패해
호명
동그라
슈타인
축협
화음
이치로
로고스
예하
허상
프란츠
매복
불똥
윤창
대방
미각
방풍
돌아볼
소림
ARS
조중동
폐회
##버릇
##상각
심의위
포스트모더니즘
ㆍ경제
앨리
##다녀
##츠크
검술
운문
마테
304
당규
향서
##angu
전횡
지랄
홍정
고음
기암
치도
담판
무정
유별
답례
둘러본
미끄럼
콘솔
##itz
##urt
##here
##다이라
구연
저걸
쿠팡
sec
터스
##우뚱
들어올렸
##인수
China
##64
파노라마
투철
최희섭
ㆍ주
팟캐스트
LCC
##ading
물러날
초토
아태
1888
파고드
끌려갔
갑오
주걱
씌우
법당
흐린
에어부산
체인지업
행복감
his
##혈관
왕좌
저층
발사대
##OU
칼럼니스트
브릭스
사투
##예진
한단다
최단
##어음
##사위
UCC
덕담
병신
술병
회당
유전체
단열
단오
업장
##지붕
##카타
드나드
청구서
스톡홀름
사별
##타페
##igital
현영
흥선
오로라
단전
무난히
청혼
향응
던스
격동
기러기
스탬
승하
##저만
들통
관군
토모
편백
##마르크
살아났
떨구
부대원
붕대
##고르
오스틴
도통
몸길이
분광
바닷속
##irect
수리비
곤두박질
##스트럭처
간이
만도
모용
East
출점
Free
빌렸
어울렸
발치
Pat
경총
와사
매리
서툰
스팅
요절
1892
여명
유이
1886
족히
##초프
Organ
빨대
253
예금자
유황
신안군
라드
일직
보살핌
서론
윤진
루카스
대한상의
거북이
펴내
요괴
마스터플랜
비뉴
물레
물리쳤
아녜
상실감
공갈
듀엣
차로
논밭
으니깐
Cambridge
산발
셀레
의연
노랫말
Elect
소임
칠월
쉬울
익힐
두근두근
Institute
##왕산
타박
이에야스
최지
동탁
수류
지겹
추악
##지스
개경
375
도취
삭발
불끈
유명무실
화주
보통주
독차지
아웅
이만저만
옵티머스
##애애
면허증
요것
거북선
##ㅜㅜㅜㅜ
히사
통계학
샤브샤브
산시
##방망이
아이젠
시급히
##융합
샐러리맨
노마
직분
대니얼
마더
골동
파스텔
간척
쇼팽
페스트
포츠
헐떡
인프라스트럭처
고동
여비
추문
지침서
다도
##문학
센서스
##ype
이뤄지면
김건
비니
영천시
패셔
1848
콜라보레이션
온누리
광역자치단체
자포
처할
놔야
빌릴
누런
KR
고시원
나스닥
State
건축사
날아갈
외무부
석가모니
아성
빅터
종과
##공간
쓰라
##아찌
맞불
사로잡힌
중론
처가
수행원
손쉬운
급작
드롭
교무
금욕
##냅니다
스트레이트
연거푸
넘친다
고속철도
장신구
Peter
린다
퓨어
##줘야
수채
쿨링
##PN
까마득
루돌프
중환자실
사쿠라
호들
메이플
클레어
Asia
사오
판자
##치우
대한체육회
선택지
구국
오묘
감가상각
김진태
##다닌다
까칠
김하늘
알록
Bre
격정
재우
지병
선곡
한해서
와이즈
너도
치루
##ros
기근
떨어뜨려
찾아뵙
뮤지엄
교보문고
샤인
오장
당구
밑바탕
불러도
개학
도핑
생화학
##래기
집사람
Company
윤주
하품
현세
분절
동의보감
이용해
KIS
아씨
부사관
원목
스펜
육즙
언서
대항전
알렉산드로스
발렌시아
취리히
##팬지
정론
예수회
농민군
우열
벅차
경부선
마티스
##알라
게이머
다이내믹
Ear
AV
시영
실랑이
##넌트
좌회전
그러니깐
컵스
##오래
데려왔
상암동
##소닉
제사장
뒷걸음질
비스듬히
동방신기
긍까
셔요
가주
탱탱
전근대
##할린
갖춰진
Gold
쌀값
##절미
244
신진대사
EPL
엥겔
##EG
고난도
겨레
애애
인멸
##vir
##불퉁
##퉁불퉁
섀도우
fac
행차
황무지
만화가
갸우뚱
망토
잉여금
끓어
세가
달서
뒤떨
살필
살인자
허겁
총경
플레이트
Del
골재
토건
##운영
마초
마돈나
과밀
울퉁불퉁
철조
MR
빼먹
##나연
##나미
다녀갔
끌어올린
쫓겨난
활기차
기스
##슬기
전투력
서주
ㆍ경
남향
괴한
알갱이
비통
쌍꺼풀
폴더
주종
데르
##노리
ㆍ하
너구리
따님
침팬지
함선
마구잡이
착실
Technology
순창
안내서
남상
표하
하객
니콜라스
##스테이
청진
Mil
지참
크리스털
장동건
객사
십이
아웃렛
받아들여졌
아데
맑스
##게트
##ini
게놈
자연사
캠벨
##혀서
어루만지
권성
##ka
##천후
송혜
West
올지
촌락
드레싱
동그라미
랜덤
아린
뽀로로
사망률
곤욕
다비드
슬며시
권능
##계리
구와
지렁이
극장판
사스
숨겼
진구
환갑
세끼
치우치
##당선
##버른
stud
망설였
시퍼
쏠려
포워드
외가
해학
개간
에덴
종국
황선
드리블
박석민
서려
##ason
야시장
목도
이창호
명언
위령
##감각
인장
철기
조리법
전군
##로웠
은상
Bank
##부절
사공
암모
고속화
방배
어종
연매
공방전
##계산
중대장
관현악단
시보
통속
TEST
보배
찍히
cons
특종
229
239
소국
풀려났
간행물
달라이
브람
최상급
1868
극진
휘날리
공공연히
760
##연수
인사이드
##하이오
구스타
저당권
스팟
다빈치
왼편
##OM
올리버
레인지
##나도
##iver
화기애애
떨쳤
핵탄두
##시중
##은땀
감정평가
대첩
세난
1592
미완성
동수
세레
현진
##OA
라는데
정부안
대대장
베이비붐
life
거려
예조
유년기
노약자
호들갑
##대원군
크리스틴
Great
식은땀
##바시
여제
통닭
금남
##지겁
마네
분란
##by
테러리즘
볼셰비키
상념
파드
출연자
이겨낼
매운탕
카메룬
건장
총감독
##ano
무안타
배서
바이킹
490
내리막길
##메랄
허겁지겁
남강
차돌
레인저스
하토야마
까르
벌집
아차
너라
##젤로
오래오래
여지없이
상술
중턱
웃긴
그럴수록
리차드
라시
라비
웨슬리
##새끼
노동법
##하임
목표물
옴니
정훈
되도록
격한
옥중
하스
남문
병변
SAT
대유
##러우
외식업
재래식
Bri
만무
설욕
##이다
##고양이
임대인
매회
오하이오
243
머스크
줄인다
는다며
Big
한가위
보온성
분원
249
화내
대가리
##민정음
총성
미뤘
애쓴
역명
에스프레소
군무
웰스
##절부절
242
허정무
큽니다
미동
시티즌
Ref
안절부절
애로
완고
끌어당기
돌려서
김태희
끼우
##엔지니어
미티
##장고
농사일
우상호
아이언맨
마침표
발렌타인
해리스
##엉이
조깅
여태껏
가망
행자부
알펜시아
둘러앉
강지
패티
장학사
BL
낙폭
말랑
괴상
##라이더
남긴다
샌더스
퉁명
이크
카롤
##ability
염화
좌익수
가감
감정가
억양
##ues
보였으나
##ha
펄럭
임신부
소개팅
str
는걸
비스타
여류
##게이머
속사
상담소
방석
지게
미네르바
변별력
프로게이머
